{
  "version": "1.0",
  "truncation": null,
  "padding": null,
  "added_tokens": [
    {
      "id": 0,
      "content": "<pad>",
      "single_word": false,
      "lstrip": false,
      "rstrip": false,
      "normalized": false,
      "special": true
    },
    {
      "id": 1,
      "content": "<sos>",
      "single_word": false,
      "lstrip": false,
      "rstrip": false,
      "normalized": false,
      "special": true
    },
    {
      "id": 2,
      "content": "<eos>",
      "single_word": false,
      "lstrip": false,
      "rstrip": false,
      "normalized": false,
      "special": true
    },
    {
      "id": 3,
      "content": "<unk>",
      "single_word": false,
      "lstrip": false,
      "rstrip": false,
      "normalized": false,
      "special": true
    }
  ],
  "normalizer": null,
  "pre_tokenizer": {
    "type": "ByteLevel",
    "add_prefix_space": false,
    "trim_offsets": true,
    "use_regex": true
  },
  "post_processor": {
    "type": "TemplateProcessing",
    "single": [
      {
        "SpecialToken": {
          "id": "<sos>",
          "type_id": 0
        }
      },
      {
        "Sequence": {
          "id": "A",
          "type_id": 0
        }
      },
      {
        "SpecialToken": {
          "id": "<eos>",
          "type_id": 0
        }
      }
    ],
    "pair": [
      {
        "Sequence": {
          "id": "A",
          "type_id": 0
        }
      },
      {
        "Sequence": {
          "id": "B",
          "type_id": 1
        }
      }
    ],
    "special_tokens": {
      "<eos>": {
        "id": "<eos>",
        "ids": [
          2
        ],
        "tokens": [
          "<eos>"
        ]
      },
      "<sos>": {
        "id": "<sos>",
        "ids": [
          1
        ],
        "tokens": [
          "<sos>"
        ]
      }
    }
  },
  "decoder": {
    "type": "ByteLevel",
    "add_prefix_space": true,
    "trim_offsets": true,
    "use_regex": true
  },
  "model": {
    "type": "BPE",
    "dropout": null,
    "unk_token": null,
    "continuing_subword_prefix": null,
    "end_of_word_suffix": null,
    "fuse_unk": false,
    "byte_fallback": false,
    "ignore_merges": false,
    "vocab": {
      "<pad>": 0,
      "<sos>": 1,
      "<eos>": 2,
      "<unk>": 3,
      "!": 4,
      "\"": 5,
      "#": 6,
      "$": 7,
      "%": 8,
      "&": 9,
      "'": 10,
      "(": 11,
      ")": 12,
      "*": 13,
      "+": 14,
      ",": 15,
      "-": 16,
      ".": 17,
      "/": 18,
      "0": 19,
      "1": 20,
      "2": 21,
      "3": 22,
      "4": 23,
      "5": 24,
      "6": 25,
      "7": 26,
      "8": 27,
      "9": 28,
      ":": 29,
      ";": 30,
      "<": 31,
      "=": 32,
      ">": 33,
      "?": 34,
      "@": 35,
      "A": 36,
      "B": 37,
      "C": 38,
      "D": 39,
      "E": 40,
      "F": 41,
      "G": 42,
      "H": 43,
      "I": 44,
      "J": 45,
      "K": 46,
      "L": 47,
      "M": 48,
      "N": 49,
      "O": 50,
      "P": 51,
      "Q": 52,
      "R": 53,
      "S": 54,
      "T": 55,
      "U": 56,
      "V": 57,
      "W": 58,
      "X": 59,
      "Y": 60,
      "Z": 61,
      "[": 62,
      "\\": 63,
      "]": 64,
      "^": 65,
      "_": 66,
      "`": 67,
      "a": 68,
      "b": 69,
      "c": 70,
      "d": 71,
      "e": 72,
      "f": 73,
      "g": 74,
      "h": 75,
      "i": 76,
      "j": 77,
      "k": 78,
      "l": 79,
      "m": 80,
      "n": 81,
      "o": 82,
      "p": 83,
      "q": 84,
      "r": 85,
      "s": 86,
      "t": 87,
      "u": 88,
      "v": 89,
      "w": 90,
      "x": 91,
      "y": 92,
      "z": 93,
      "{": 94,
      "|": 95,
      "}": 96,
      "~": 97,
      "¡": 98,
      "¢": 99,
      "£": 100,
      "¤": 101,
      "¥": 102,
      "¦": 103,
      "§": 104,
      "¨": 105,
      "©": 106,
      "ª": 107,
      "«": 108,
      "¬": 109,
      "®": 110,
      "¯": 111,
      "°": 112,
      "±": 113,
      "²": 114,
      "³": 115,
      "´": 116,
      "µ": 117,
      "¶": 118,
      "·": 119,
      "¸": 120,
      "¹": 121,
      "º": 122,
      "»": 123,
      "¼": 124,
      "½": 125,
      "¾": 126,
      "¿": 127,
      "Â": 128,
      "Ã": 129,
      "Ä": 130,
      "Å": 131,
      "Æ": 132,
      "È": 133,
      "Ê": 134,
      "Ë": 135,
      "Ì": 136,
      "Í": 137,
      "Î": 138,
      "Ï": 139,
      "Ð": 140,
      "Ñ": 141,
      "à": 142,
      "á": 143,
      "â": 144,
      "ã": 145,
      "æ": 146,
      "è": 147,
      "ê": 148,
      "ì": 149,
      "í": 150,
      "î": 151,
      "ï": 152,
      "ā": 153,
      "Ă": 154,
      "ă": 155,
      "Ą": 156,
      "ą": 157,
      "Ć": 158,
      "ć": 159,
      "Ĉ": 160,
      "ċ": 161,
      "Ď": 162,
      "ď": 163,
      "Đ": 164,
      "đ": 165,
      "Ē": 166,
      "ē": 167,
      "Ĕ": 168,
      "ĕ": 169,
      "Ė": 170,
      "ė": 171,
      "Ę": 172,
      "ę": 173,
      "Ě": 174,
      "ě": 175,
      "Ĝ": 176,
      "ĝ": 177,
      "Ğ": 178,
      "ğ": 179,
      "Ġ": 180,
      "ġ": 181,
      "Ģ": 182,
      "ģ": 183,
      "Ĥ": 184,
      "ĥ": 185,
      "Ħ": 186,
      "ħ": 187,
      "Ĩ": 188,
      "ĩ": 189,
      "Ī": 190,
      "ī": 191,
      "Ĭ": 192,
      "ĭ": 193,
      "Į": 194,
      "į": 195,
      "İ": 196,
      "ı": 197,
      "Ĳ": 198,
      "ĳ": 199,
      "Ĵ": 200,
      "ĵ": 201,
      "Ķ": 202,
      "ķ": 203,
      "ĸ": 204,
      "Ĺ": 205,
      "ĺ": 206,
      "Ļ": 207,
      "ļ": 208,
      "Ľ": 209,
      "ľ": 210,
      "Ŀ": 211,
      "ŀ": 212,
      "Ł": 213,
      "ł": 214,
      "Ń": 215,
      "es": 216,
      "Ġd": 217,
      "on": 218,
      "en": 219,
      "an": 220,
      "ti": 221,
      "Ã©": 222,
      "er": 223,
      "in": 224,
      "Ġt": 225,
      "Ġl": 226,
      "Ġp": 227,
      "Ġa": 228,
      "re": 229,
      "Ġc": 230,
      "Ġs": 231,
      "or": 232,
      "ent": 233,
      "Ġde": 234,
      "is": 235,
      "tion": 236,
      "he": 237,
      "ou": 238,
      "it": 239,
      "al": 240,
      "ar": 241,
      "ro": 242,
      "Ġe": 243,
      "Ġf": 244,
      "Ġthe": 245,
      "âĢ": 246,
      "Ġm": 247,
      "Ġo": 248,
      "ation": 249,
      "qu": 250,
      "Ġin": 251,
      "at": 252,
      "ĠC": 253,
      "ment": 254,
      "ur": 255,
      "ic": 256,
      "le": 257,
      "and": 258,
      "Ġof": 259,
      "om": 260,
      "un": 261,
      "ra": 262,
      "Ġb": 263,
      "il": 264,
      "ed": 265,
      "Ġla": 266,
      "âĢĻ": 267,
      "Ġdes": 268,
      "ad": 269,
      "Ġet": 270,
      "Ġand": 271,
      "Ġpro": 272,
      "el": 273,
      "us": 274,
      "Ġn": 275,
      "ec": 276,
      "Ġto": 277,
      "Ġw": 278,
      "ri": 279,
      "Ġles": 280,
      "as": 281,
      "ce": 282,
      "Ġle": 283,
      "res": 284,
      "ĠÃ": 285,
      "Ġre": 286,
      "our": 287,
      "ing": 288,
      "00": 289,
      "anad": 290,
      "Ġcon": 291,
      "te": 292,
      "Ġqu": 293,
      "rÃ©": 294,
      "ts": 295,
      "ĠÃł": 296,
      "Ġen": 297,
      "ol": 298,
      "ul": 299,
      "ĠP": 300,
      "Ġdu": 301,
      "Ġau": 302,
      "Ġ2": 303,
      "ĠA": 304,
      "ers": 305,
      "Ġv": 306,
      "Ġg": 307,
      "ci": 308,
      "ĠCanad": 309,
      "ĠS": 310,
      "et": 311,
      "Ġcom": 312,
      "ch": 313,
      "Ġth": 314,
      "Ġun": 315,
      "ta": 316,
      "si": 317,
      "Ġ(": 318,
      "ve": 319,
      "Ã¨": 320,
      "pp": 321,
      "Ġpar": 322,
      "ement": 323,
      "ag": 324,
      "Ġ1": 325,
      "au": 326,
      "ter": 327,
      "Ġh": 328,
      "ans": 329,
      "ant": 330,
      "mp": 331,
      "me": 332,
      "ir": 333,
      "ont": 334,
      "du": 335,
      "Ġfor": 336,
      "ĠÃ©": 337,
      "ig": 338,
      "ĠM": 339,
      "tu": 340,
      "ai": 341,
      "ort": 342,
      "Ġ200": 343,
      "os": 344,
      "ĠCanada": 345,
      "tr": 346,
      "ver": 347,
      "ĠT": 348,
      "Ã©s": 349,
      "ĠD": 350,
      "Ġex": 351,
      "ac": 352,
      "bl": 353,
      "est": 354,
      "ĠF": 355,
      "ff": 356,
      "ces": 357,
      "ĠI": 358,
      "ĠL": 359,
      "Ġpour": 360,
      "ion": 361,
      "op": 362,
      "de": 363,
      "ĠR": 364,
      "di": 365,
      "th": 366,
      "ations": 367,
      "que": 368,
      "se": 369,
      "ie": 370,
      "Ġsu": 371,
      "ate": 372,
      "ab": 373,
      "Ġpl": 374,
      "âĢ¨": 375,
      "ĠrÃ©": 376,
      "Ġis": 377,
      "gra": 378,
      "iv": 379,
      "Ġac": 380,
      "tin": 381,
      "Ġon": 382,
      "ĠdÃ©": 383,
      "ill": 384,
      "duc": 385,
      "Ġsur": 386,
      "Ġan": 387,
      "Ġor": 388,
      "ist": 389,
      "urs": 390,
      "ien": 391,
      "ĠB": 392,
      "Ġas": 393,
      "âĢ¢": 394,
      "gram": 395,
      "Ġbe": 396,
      "ĠN": 397,
      "Ġi": 398,
      "ity": 399,
      "Ġque": 400,
      "Ġdans": 401,
      "ĠE": 402,
      "__": 403,
      "ang": 404,
      "vel": 405,
      "tÃ©": 406,
      "Ġr": 407,
      "ance": 408,
      "ly": 409,
      "ot": 410,
      "Ġcomp": 411,
      "Ġthat": 412,
      "end": 413,
      "ati": 414,
      "iti": 415,
      "ne": 416,
      "Ġcomm": 417,
      "itÃ©": 418,
      "um": 419,
      "Ġres": 420,
      "Ġmo": 421,
      "ith": 422,
      "ay": 423,
      "orm": 424,
      "age": 425,
      "Ġou": 426,
      "ue": 427,
      "tions": 428,
      "ĠIn": 429,
      "Ġse": 430,
      "ow": 431,
      "erv": 432,
      "ous": 433,
      "Ġune": 434,
      "ĠO": 435,
      "tre": 436,
      "ire": 437,
      "Ġal": 438,
      "Ġqui": 439,
      "Ġch": 440,
      "ut": 441,
      "fic": 442,
      "Ġwith": 443,
      "oc": 444,
      "id": 445,
      "its": 446,
      "les": 447,
      "nÃ©": 448,
      "Ġare": 449,
      "The": 450,
      "ĠG": 451,
      "ting": 452,
      "Ġ:": 453,
      "Ġav": 454,
      "Ġaux": 455,
      "ons": 456,
      "ure": 457,
      "form": 458,
      "ain": 459,
      "Ġne": 460,
      "ult": 461,
      "tiv": 462,
      "ational": 463,
      "ques": 464,
      "am": 465,
      "li": 466,
      "Ġy": 467,
      "omm": 468,
      "Ġprogram": 469,
      "Ġ$": 470,
      "Ġapp": 471,
      "Ġby": 472,
      "oun": 473,
      "ence": 474,
      "ian": 475,
      "Ġper": 476,
      "ĠPro": 477,
      "ais": 478,
      "Ġimp": 479,
      "Ġj": 480,
      "Ġest": 481,
      "Ġcons": 482,
      "tri": 483,
      "Ġexp": 484,
      "ants": 485,
      "Ġwh": 486,
      "Ġplus": 487,
      "aux": 488,
      "ture": 489,
      "tic": 490,
      "ct": 491,
      "Ġprov": 492,
      "ĠprÃ©": 493,
      "Ġ3": 494,
      "Ġproduc": 495,
      "ĠH": 496,
      "Ġmar": 497,
      "ble": 498,
      "ervic": 499,
      "entre": 500,
      "ect": 501,
      "Ġinc": 502,
      "ond": 503,
      "mes": 504,
      "ine": 505,
      "nement": 506,
      "Ġinter": 507,
      "Ġad": 508,
      "Ã¨re": 509,
      "ments": 510,
      "able": 511,
      "ap": 512,
      "Ġat": 513,
      "oci": 514,
      "99": 515,
      "ear": 516,
      "Ġtra": 517,
      "Ġfin": 518,
      "ric": 519,
      "ies": 520,
      "cip": 521,
      "ten": 522,
      "aire": 523,
      "ale": 524,
      "od": 525,
      "ubl": 526,
      "Ġra": 527,
      "min": 528,
      "anadien": 529,
      "ux": 530,
      "Ġag": 531,
      "rou": 532,
      "ere": 533,
      "ess": 534,
      "Ġcanadien": 535,
      "ĠW": 536,
      "st": 537,
      "Ã©e": 538,
      "Ġcommun": 539,
      "ĠCanadian": 540,
      "ord": 541,
      "Ġ-": 542,
      "ge": 543,
      "ite": 544,
      "og": 545,
      "ven": 546,
      "Ã©r": 547,
      "lo": 548,
      "ard": 549,
      "gan": 550,
      "aires": 551,
      "rom": 552,
      "sion": 553,
      "ique": 554,
      "Ġsont": 555,
      "ld": 556,
      "Ġsp": 557,
      "elle": 558,
      "ari": 559,
      "ivers": 560,
      "Ġ4": 561,
      "im": 562,
      "ex": 563,
      "____": 564,
      "Ġpe": 565,
      "Ġpas": 566,
      "ents": 567,
      "Ġrep": 568,
      "pport": 569,
      "Ġme": 570,
      "ber": 571,
      "bu": 572,
      "Ãª": 573,
      "out": 574,
      "par": 575,
      "anc": 576,
      "cess": 577,
      "Ġparti": 578,
      "tif": 579,
      "ke": 580,
      "Ġfrom": 581,
      "Ã©es": 582,
      "ĠU": 583,
      "ervices": 584,
      "Ġdis": 585,
      "Ġce": 586,
      "ins": 587,
      "av": 588,
      "Ã©ri": 589,
      "ign": 590,
      "che": 591,
      "ther": 592,
      "Ġont": 593,
      "ities": 594,
      "Ġrec": 595,
      "Ġnot": 596,
      "Les": 597,
      "sent": 598,
      "Ġpubl": 599,
      "ise": 600,
      "In": 601,
      "tis": 602,
      "dus": 603,
      "gh": 604,
      "der": 605,
      "ors": 606,
      "pr": 607,
      "iz": 608,
      "Ġsec": 609,
      "Ġco": 610,
      "formation": 611,
      "itÃ©s": 612,
      "ĠJ": 613,
      "ip": 614,
      "Ġtr": 615,
      "ĠÂ": 616,
      "ait": 617,
      "Le": 618,
      "Ġ5": 619,
      "ulture": 620,
      "cial": 621,
      "ĠV": 622,
      "ated": 623,
      "oll": 624,
      "ork": 625,
      "Ġmin": 626,
      "Ġar": 627,
      "onn": 628,
      "ues": 629,
      "Ã¨s": 630,
      "lÃ©": 631,
      "ud": 632,
      "ial": 633,
      "Ġha": 634,
      "ures": 635,
      "Ġpr": 636,
      "Ġsh": 637,
      "ens": 638,
      "ail": 639,
      "Ġproj": 640,
      "all": 641,
      "bre": 642,
      "tive": 643,
      "Ġthis": 644,
      "une": 645,
      "Ġdi": 646,
      "over": 647,
      "hn": 648,
      "ves": 649,
      "ouver": 650,
      "Ġorgan": 651,
      "Ġacc": 652,
      "mo": 653,
      "Ġpri": 654,
      "ary": 655,
      "Ã©g": 656,
      "con": 657,
      "ions": 658,
      "Ġ199": 659,
      "ural": 660,
      "velop": 661,
      "ide": 662,
      "ase": 663,
      "Ġ%": 664,
      "Ġob": 665,
      ").": 666,
      "Ġentre": 667,
      "ction": 668,
      "Ġwill": 669,
      "ffic": 670,
      "til": 671,
      "Ġlang": 672,
      "Ġhave": 673,
      "ient": 674,
      "aut": 675,
      "igh": 676,
      "Ġass": 677,
      "national": 678,
      "Ġresp": 679,
      "titu": 680,
      "ould": 681,
      "Ġservices": 682,
      "Ã§": 683,
      "Ġconc": 684,
      "ore": 685,
      "ative": 686,
      "000": 687,
      "ong": 688,
      "Ġman": 689,
      "ĠProgram": 690,
      "Ġrel": 691,
      "iss": 692,
      "Ġus": 693,
      "hon": 694,
      "conom": 695,
      "ome": 696,
      "rit": 697,
      "per": 698,
      "Ġavec": 699,
      "Ġter": 700,
      "Th": 701,
      "ĠRe": 702,
      "Ġst": 703,
      "Ġti": 704,
      "Ġstr": 705,
      "ich": 706,
      "overn": 707,
      "ats": 708,
      "bil": 709,
      "Ġ6": 710,
      "olog": 711,
      "Ġpers": 712,
      "Ġtheir": 713,
      "ĠQ": 714,
      "ost": 715,
      "ell": 716,
      "Ġall": 717,
      "teur": 718,
      "ier": 719,
      "Ġdem": 720,
      "Ġhas": 721,
      "lement": 722,
      "els": 723,
      "Ġpol": 724,
      "und": 725,
      "ĠDe": 726,
      "ours": 727,
      "Ġimport": 728,
      "ach": 729,
      "val": 730,
      "Ġwas": 731,
      "Ġfr": 732,
      "Ġdo": 733,
      "ette": 734,
      "ss": 735,
      "ms": 736,
      "bles": 737,
      "pe": 738,
      "ace": 739,
      "Ġpre": 740,
      "ood": 741,
      "Ã©d": 742,
      "ĠâĢ": 743,
      "oi": 744,
      "tes": 745,
      "echn": 746,
      "try": 747,
      "ww": 748,
      "fer": 749,
      "ĠComm": 750,
      "Ġprodu": 751,
      "oir": 752,
      "emp": 753,
      "Ġparticip": 754,
      "ish": 755,
      "oin": 756,
      "ande": 757,
      "Ġmill": 758,
      "Ã©nÃ©": 759,
      "Ġins": 760,
      "eral": 761,
      "Ġma": 762,
      "enti": 763,
      "Ġpublic": 764,
      "elles": 765,
      "La": 766,
      "Ãī": 767,
      "Ġaut": 768,
      "Ġu": 769,
      "tabl": 770,
      "lic": 771,
      "ultural": 772,
      "Ġ2006": 773,
      "Ġam": 774,
      "Ġprovin": 775,
      "ĠThe": 776,
      "ĠFr": 777,
      "'s": 778,
      "oy": 779,
      "200": 780,
      "Ġli": 781,
      "Ġvis": 782,
      "Ġeff": 783,
      "orts": 784,
      "tain": 785,
      "Ã´": 786,
      "ys": 787,
      "vis": 788,
      "Ġit": 789,
      "Ġpay": 790,
      "),": 791,
      "ĠÃ©tÃ©": 792,
      "tribu": 793,
      "Ġmus": 794,
      "Ġactiv": 795,
      "Ġreg": 796,
      "Ġdevelop": 797,
      "ern": 798,
      "iques": 799,
      "Ġgouver": 800,
      "Ġhe": 801,
      "ense": 802,
      "Ġgr": 803,
      "ĠCh": 804,
      "Ġincl": 805,
      "Ġso": 806,
      "Ġprop": 807,
      "ales": 808,
      "isation": 809,
      "Ġyear": 810,
      "ia": 811,
      "are": 812,
      "ON": 813,
      "osi": 814,
      "Ġ7": 815,
      "ages": 816,
      "vent": 817,
      "lec": 818,
      "uation": 819,
      "dustri": 820,
      "En": 821,
      "TI": 822,
      "Ġno": 823,
      "Ġtrans": 824,
      "ese": 825,
      "teurs": 826,
      "Ġproduction": 827,
      "Ġsou": 828,
      "Ġil": 829,
      "ĠrÃ©g": 830,
      "ements": 831,
      "overnment": 832,
      "ress": 833,
      "Ġoffic": 834,
      "part": 835,
      "jec": 836,
      "mis": 837,
      "..": 838,
      "ile": 839,
      "Ġdon": 840,
      "mb": 841,
      "ources": 842,
      "Ġgouvernement": 843,
      "ĠAg": 844,
      "Ġwhich": 845,
      "Ġ2005": 846,
      "Ġother": 847,
      "nÃ©es": 848,
      "Ġleur": 849,
      "Ġits": 850,
      "ille": 851,
      "Ġdire": 852,
      "Ġpart": 853,
      "port": 854,
      "cl": 855,
      "ob": 856,
      "ES": 857,
      "ĠCon": 858,
      "Ã¨res": 859,
      "Ġcer": 860,
      "Ġsoci": 861,
      "Ġ8": 862,
      "dition": 863,
      "Ġnom": 864,
      "Ġform": 865,
      "ophon": 866,
      "fin": 867,
      "Ġ\"": 868,
      "Ġcl": 869,
      "estion": 870,
      "cc": 871,
      "Ġmarch": 872,
      "Ġculture": 873,
      "Ġcontribu": 874,
      "app": 875,
      "Ġinternational": 876,
      "AN": 877,
      "Ġpos": 878,
      "Ġmore": 879,
      "Ġab": 880,
      "Ġes": 881,
      "so": 882,
      "Ġsub": 883,
      "uis": 884,
      "ĠLe": 885,
      "cher": 886,
      "ois": 887,
      "ĠâĢĵ": 888,
      "Ġces": 889,
      "cep": 890,
      "ew": 891,
      "tra": 892,
      "Ġmon": 893,
      "Ġfinan": 894,
      "ĠEn": 895,
      "ass": 896,
      "Ġcan": 897,
      "cri": 898,
      "ĠÃª": 899,
      "ourn": 900,
      "Ġ2007": 901,
      "Ġ2004": 902,
      "ive": 903,
      "________": 904,
      "iew": 905,
      "earch": 906,
      "opp": 907,
      "act": 908,
      "ĠUn": 909,
      "Ġtechn": 910,
      "Ġsi": 911,
      "Ġsa": 912,
      "rop": 913,
      "vir": 914,
      "Ġfund": 915,
      "Ġser": 916,
      "Ġdiff": 917,
      "Ġ[": 918,
      "ĠÃªtre": 919,
      "Ġ0": 920,
      "Ġ19": 921,
      "ose": 922,
      "Ġnational": 923,
      "ĠprÃ©sent": 924,
      "Ġnou": 925,
      "ound": 926,
      "ĠK": 927,
      "ates": 928,
      "ences": 929,
      "viron": 930,
      "Un": 931,
      "Ġalso": 932,
      "ph": 933,
      "uc": 934,
      "bec": 935,
      "Ġwork": 936,
      "if": 937,
      "Ġ9": 938,
      "ific": 939,
      "Ġrequ": 940,
      "Ġincre": 941,
      "ĠInter": 942,
      "tud": 943,
      "Ġcap": 944,
      "ĠMin": 945,
      "roup": 946,
      "ises": 947,
      "Ġdro": 948,
      "Ġbo": 949,
      "ection": 950,
      "ased": 951,
      "ĠÂ»": 952,
      "Ġplan": 953,
      "lle": 954,
      "Ġminist": 955,
      "Ġinformation": 956,
      "Ġcol": 957,
      "Ġcommer": 958,
      "ateurs": 959,
      "Ã©lÃ©": 960,
      "ally": 961,
      "ocu": 962,
      "oration": 963,
      "Ġwere": 964,
      "velopp": 965,
      "ole": 966,
      "Ġnon": 967,
      "Ġprin": 968,
      "ket": 969,
      "Ġnew": 970,
      "Ã®": 971,
      "ĠrÃ©s": 972,
      "ted": 973,
      "Ġdev": 974,
      "Il": 975,
      "Ġprof": 976,
      "ancophon": 977,
      "ater": 978,
      "ges": 979,
      "ks": 980,
      "atives": 981,
      "Ġemp": 982,
      "dic": 983,
      "nes": 984,
      "ĠÂ«": 985,
      "Ġcent": 986,
      "Ġagric": 987,
      "Ġnombre": 988,
      "Ġpres": 989,
      "Ã©c": 990,
      "use": 991,
      "Ġcomme": 992,
      "Ġnum": 993,
      "amp": 994,
      "Ġprocess": 995,
      "Ġint": 996,
      "etw": 997,
      "Ġwe": 998,
      "Ġproduits": 999,
      "ĠPar": 1000,
      "Ġdivers": 1001,
      "ĠgÃ©nÃ©": 1002,
      "alement": 1003,
      "ussi": 1004,
      "hip": 1005,
      "Ġprogramme": 1006,
      "loy": 1007,
      "Ġcette": 1008,
      "ĠdÃ©p": 1009,
      "Ġsta": 1010,
      "Ġmes": 1011,
      "iÃ¨re": 1012,
      "Ġobjec": 1013,
      "Ġfe": 1014,
      "10": 1015,
      "ak": 1016,
      "Ġover": 1017,
      "iness": 1018,
      "iens": 1019,
      "tari": 1020,
      "ils": 1021,
      "Ã¨me": 1022,
      "EN": 1023,
      "abil": 1024,
      "Ġrecher": 1025,
      "Ġorganis": 1026,
      "row": 1027,
      "cis": 1028,
      "arg": 1029,
      "Ġ]": 1030,
      "ĠSt": 1031,
      "ĠÃī": 1032,
      "valuation": 1033,
      "ribu": 1034,
      "Ġtrav": 1035,
      "dustry": 1036,
      "ĠCom": 1037,
      "ente": 1038,
      "usiness": 1039,
      "Ġfa": 1040,
      "Ġdeux": 1041,
      "Ġprogrammes": 1042,
      "Ġleurs": 1043,
      "ĠEx": 1044,
      "Ġperm": 1045,
      "agement": 1046,
      "rough": 1047,
      "Ġann": 1048,
      "ov": 1049,
      "ton": 1050,
      "enc": 1051,
      "Ġbeen": 1052,
      "ets": 1053,
      "uage": 1054,
      "Ġent": 1055,
      "Ġqual": 1056,
      "IC": 1057,
      "Ġprincip": 1058,
      "ca": 1059,
      "Ġ2003": 1060,
      "ui": 1061,
      "com": 1062,
      "ars": 1063,
      "Ġson": 1064,
      "ER": 1065,
      "mer": 1066,
      "Ġpays": 1067,
      "Ġtout": 1068,
      "Ġprovid": 1069,
      "Ġout": 1070,
      "tique": 1071,
      "tives": 1072,
      "Ġ10": 1073,
      "rent": 1074,
      "On": 1075,
      "This": 1076,
      "ĠcrÃ©": 1077,
      "Ġcanadienne": 1078,
      "Ġmain": 1079,
      "ĠLa": 1080,
      "Ġsupport": 1081,
      "Ġdocu": 1082,
      "view": 1083,
      "Ġchang": 1084,
      "ĠdÃ©velopp": 1085,
      "als": 1086,
      "Ġpeu": 1087,
      "Ã¢": 1088,
      "Ġunder": 1089,
      "Ã»": 1090,
      "ervice": 1091,
      "Ġentrepr": 1092,
      "Ġthese": 1093,
      "gl": 1094,
      "pec": 1095,
      "Ġthan": 1096,
      "acc": 1097,
      "Ġses": 1098,
      "Ġsign": 1099,
      "Ġindi": 1100,
      "ax": 1101,
      "uÃ©": 1102,
      "Ġfait": 1103,
      "ĠgÃ©nÃ©r": 1104,
      "Ġspec": 1105,
      "Ġcontin": 1106,
      "ree": 1107,
      "nÃ©e": 1108,
      "ĠAn": 1109,
      "ancement": 1110,
      "ory": 1111,
      "uv": 1112,
      "Ġinv": 1113,
      "tem": 1114,
      "Ġconsi": 1115,
      "Ġcar": 1116,
      "Ġpersonn": 1117,
      "ines": 1118,
      "Ġdist": 1119,
      "Ġpoliti": 1120,
      "partment": 1121,
      "Ġthey": 1122,
      "arm": 1123,
      "ticul": 1124,
      "ances": 1125,
      "Ġdemande": 1126,
      "Ġorganiz": 1127,
      "tiques": 1128,
      "IS": 1129,
      "ĠRes": 1130,
      "ĠAr": 1131,
      "atÃ©g": 1132,
      "Ġpeut": 1133,
      "Ġapplic": 1134,
      "ederal": 1135,
      "Ġtot": 1136,
      "tent": 1137,
      "Ġgra": 1138,
      "Ġgroup": 1139,
      "Ãªme": 1140,
      "gment": 1141,
      "rait": 1142,
      "atri": 1143,
      "Ġcoun": 1144,
      "ĠMan": 1145,
      "Ġbut": 1146,
      "ignement": 1147,
      "sible": 1148,
      "ical": 1149,
      "Ġmay": 1150,
      "Ġsupp": 1151,
      "Ġcas": 1152,
      "ice": 1153,
      "ene": 1154,
      "ely": 1155,
      "Ġyou": 1156,
      "lan": 1157,
      "tario": 1158,
      "Ġinclud": 1159,
      "ĠfÃ©d": 1160,
      "Ġparticul": 1161,
      "ade": 1162,
      "dustrie": 1163,
      "Ġfac": 1164,
      "Ġsy": 1165,
      "olu": 1166,
      "tifs": 1167,
      "istr": 1168,
      "Ġhigh": 1169,
      "Ãł": 1170,
      "ĠmÃ©": 1171,
      "ĠmarchÃ©": 1172,
      "righ": 1173,
      "ature": 1174,
      "ante": 1175,
      "Ġappro": 1176,
      "Ġsit": 1177,
      "Ġdisp": 1178,
      "br": 1179,
      "insi": 1180,
      "Ġimportant": 1181,
      "sibil": 1182,
      "Ġtechnolog": 1183,
      "autres": 1184,
      "tim": 1185,
      "Ġreven": 1186,
      "ducation": 1187,
      "aient": 1188,
      "ĠMar": 1189,
      "cou": 1190,
      "Ġneed": 1191,
      "Ġrapport": 1192,
      "ĠLes": 1193,
      "ĠY": 1194,
      "Ġ2002": 1195,
      "enseignement": 1196,
      "Ġcre": 1197,
      "vi": 1198,
      "Ġop": 1199,
      "ateg": 1200,
      "Ġdevelopment": 1201,
      "Ġmarket": 1202,
      "Ġsuch": 1203,
      "ĠAss": 1204,
      "Ã©tÃ©": 1205,
      "Ġdoll": 1206,
      "erit": 1207,
      "rÃ©sent": 1208,
      "Canad": 1209,
      "ual": 1210,
      "Ġiniti": 1211,
      "Ġmais": 1212,
      "ĠÃ©g": 1213,
      "pend": 1214,
      "Ġwould": 1215,
      "Ġthrough": 1216,
      "inal": 1217,
      "Ġone": 1218,
      "Ġcours": 1219,
      "Ġconf": 1220,
      "ĠrÃ©p": 1221,
      "ector": 1222,
      "RC": 1223,
      "ission": 1224,
      "Ġrecherche": 1225,
      "Ġinstitu": 1226,
      "Ġk": 1227,
      "eritage": 1228,
      "ĠdÃ©veloppement": 1229,
      "ench": 1230,
      "ociation": 1231,
      "Ġsecteur": 1232,
      "Ġ20": 1233,
      "ulation": 1234,
      "Ġdur": 1235,
      "ouris": 1236,
      "lev": 1237,
      "Ġvari": 1238,
      "ast": 1239,
      "osition": 1240,
      "dit": 1241,
      "Ġmemb": 1242,
      "Ãĥ": 1243,
      "Ġminor": 1244,
      "Ġro": 1245,
      "icy": 1246,
      "Ġloc": 1247,
      "duction": 1248,
      "ty": 1249,
      "Ġprograms": 1250,
      "Ġ000": 1251,
      "fication": 1252,
      "Ġcontr": 1253,
      "11": 1254,
      "ister": 1255,
      "ating": 1256,
      "Ġthere": 1257,
      "Ġfond": 1258,
      "Ġsuiv": 1259,
      "Ġpra": 1260,
      "anÃ§": 1261,
      "ĠNew": 1262,
      "Ġfinanci": 1263,
      "AC": 1264,
      "led": 1265,
      "Ġoff": 1266,
      "imp": 1267,
      "ĠOn": 1268,
      "Ġfourn": 1269,
      "Ġiss": 1270,
      "Ġ12": 1271,
      "ok": 1272,
      "Ġdom": 1273,
      "Ġinf": 1274,
      "ables": 1275,
      "Ġgovernment": 1276,
      "Ġvers": 1277,
      "az": 1278,
      "ied": 1279,
      "Ġpoin": 1280,
      "information": 1281,
      "TION": 1282,
      "Ġrequire": 1283,
      "Ã©n": 1284,
      "ĠÃ©ta": 1285,
      "Ġgestion": 1286,
      "oute": 1287,
      "Ġnous": 1288,
      "Ġ2001": 1289,
      "tilis": 1290,
      "Ġfunding": 1291,
      "Ġeffec": 1292,
      "Ġlong": 1293,
      "Ġainsi": 1294,
      "Ġpromo": 1295,
      "Ġmod": 1296,
      "IN": 1297,
      "orp": 1298,
      "cent": 1299,
      "ital": 1300,
      "ince": 1301,
      "Ġfil": 1302,
      "Ġcompr": 1303,
      "gr": 1304,
      "anÃ§ais": 1305,
      "ild": 1306,
      "Ġmillion": 1307,
      "ards": 1308,
      "Ġemploy": 1309,
      "adre": 1310,
      "ĠAl": 1311,
      "Ġfinancement": 1312,
      "Ġcro": 1313,
      "Ġid": 1314,
      "Ġmoy": 1315,
      "Ġlangue": 1316,
      "vision": 1317,
      "Ġshould": 1318,
      "Ġjus": 1319,
      "tt": 1320,
      "Ġunivers": 1321,
      "ĠTra": 1322,
      "ĠreprÃ©sent": 1323,
      "net": 1324,
      "Ġsome": 1325,
      "Ġgen": 1326,
      "atrimo": 1327,
      "een": 1328,
      "exp": 1329,
      "Ġrece": 1330,
      "orig": 1331,
      "Ġoffici": 1332,
      "ĠactivitÃ©s": 1333,
      "Ġmet": 1334,
      "Ġris": 1335,
      "OR": 1336,
      "mm": 1337,
      "her": 1338,
      "Ġdemand": 1339,
      "endre": 1340,
      "Ġcommunity": 1341,
      "Ġuse": 1342,
      "ĠÃ©tabl": 1343,
      "atrimoine": 1344,
      "Ġpermet": 1345,
      "ĠmÃªme": 1346,
      "De": 1347,
      "etween": 1348,
      "Ġmul": 1349,
      "Ġenviron": 1350,
      "AR": 1351,
      "Ġsc": 1352,
      "anta": 1353,
      "Ġpop": 1354,
      "12": 1355,
      "Ġprem": 1356,
      "ĠCont": 1357,
      "uÃ©bec": 1358,
      "Ġtotal": 1359,
      "Ġver": 1360,
      "get": 1361,
      "Ġfaire": 1362,
      "Ġfir": 1363,
      "Ġsys": 1364,
      "13": 1365,
      "Ã©l": 1366,
      "io": 1367,
      "iment": 1368,
      "Ġtous": 1369,
      "ited": 1370,
      "mar": 1371,
      "Ġfra": 1372,
      "Ġautres": 1373,
      "ĠFrench": 1374,
      "Ġdollars": 1375,
      "Ġresearch": 1376,
      "AL": 1377,
      "Ġval": 1378,
      "03": 1379,
      "ĠrÃ©sult": 1380,
      "ĠintÃ©": 1381,
      "Åĵ": 1382,
      "ĠdonnÃ©es": 1383,
      "tro": 1384,
      "tru": 1385,
      "enses": 1386,
      "ĠProgramme": 1387,
      "Ġany": 1388,
      "Ġaff": 1389,
      "ĠCol": 1390,
      "ications": 1391,
      "ĠDepartment": 1392,
      "Ġstud": 1393,
      "ribution": 1394,
      "Â©": 1395,
      "ouv": 1396,
      "ĠÃ©conom": 1397,
      "Ġvous": 1398,
      "50": 1399,
      "tudi": 1400,
      "oles": 1401,
      "ners": 1402,
      "Ġprojet": 1403,
      "old": 1404,
      "It": 1405,
      "Ġbetween": 1406,
      "Ġyears": 1407,
      "ings": 1408,
      "ner": 1409,
      "ĠWe": 1410,
      "uvre": 1411,
      "Ġmillions": 1412,
      "Ġgrow": 1413,
      "Ã©ra": 1414,
      "Ã©li": 1415,
      "industrie": 1416,
      "Ġaussi": 1417,
      "ĠÃ©galement": 1418,
      "entif": 1419,
      "Ġindustry": 1420,
      "Ġeconom": 1421,
      "Ġnouve": 1422,
      "Ġnumber": 1423,
      "elon": 1424,
      "Ġwell": 1425,
      "Ġtravail": 1426,
      "up": 1427,
      "ĠfÃ©dÃ©r": 1428,
      "ected": 1429,
      "Ġmati": 1430,
      "Ġdisc": 1431,
      "Ġfederal": 1432,
      "ety": 1433,
      "Ġsite": 1434,
      "Ġ|": 1435,
      "och": 1436,
      "aine": 1437,
      "ollow": 1438,
      "Ġcollec": 1439,
      "air": 1440,
      "ĠfranÃ§ais": 1441,
      "crip": 1442,
      "Ġup": 1443,
      "Ġconn": 1444,
      "Ġvoy": 1445,
      "wo": 1446,
      "ode": 1447,
      "Ġprot": 1448,
      "Ġcoll": 1449,
      "ĠAct": 1450,
      "Ġmaj": 1451,
      "tice": 1452,
      "entes": 1453,
      "Ġty": 1454,
      "EC": 1455,
      "ĠAb": 1456,
      "Ġcommunau": 1457,
      "Ġadmin": 1458,
      "Ġcadre": 1459,
      "Ġdont": 1460,
      "Ġlevel": 1461,
      "alis": 1462,
      "Ġconcern": 1463,
      "Ã©qu": 1464,
      "ight": 1465,
      "ession": 1466,
      "ange": 1467,
      "Ġabout": 1468,
      "âĹ": 1469,
      "Ġutilis": 1470,
      "ï¬": 1471,
      "ible": 1472,
      "ĠDire": 1473,
      "Ġaccord": 1474,
      "Ġren": 1475,
      "www": 1476,
      "aboration": 1477,
      "Ġliv": 1478,
      "Ġdirec": 1479,
      "Ġcanadiens": 1480,
      "Ġcontribution": 1481,
      "onne": 1482,
      "Ġpriv": 1483,
      "ever": 1484,
      "Ġcour": 1485,
      "iers": 1486,
      "Ġindic": 1487,
      "orld": 1488,
      "ack": 1489,
      "Ġreport": 1490,
      "Ġje": 1491,
      "ĠOffic": 1492,
      "Ġexport": 1493,
      "Ġcli": 1494,
      "ĠCentre": 1495,
      "Ġcultural": 1496,
      "now": 1497,
      "ĠrÃ©gion": 1498,
      "Al": 1499,
      "Ġbusiness": 1500,
      "Ġfon": 1501,
      "ĠQuÃ©bec": 1502,
      "sions": 1503,
      "ved": 1504,
      "iter": 1505,
      "Pro": 1506,
      "Ġmont": 1507,
      "prÃ¨s": 1508,
      "ĠServices": 1509,
      "Ġwho": 1510,
      "Ġ2000": 1511,
      "tiss": 1512,
      "action": 1513,
      "Ã©ta": 1514,
      "ind": 1515,
      "Ġprovide": 1516,
      "ochton": 1517,
      "Ġculturel": 1518,
      "Ġservice": 1519,
      "vention": 1520,
      "Ġsyst": 1521,
      "Ġrecomm": 1522,
      "usion": 1523,
      "Ġph": 1524,
      "âĹ¦": 1525,
      "ource": 1526,
      "Ġcapac": 1527,
      "graph": 1528,
      "Par": 1529,
      "Ġfollow": 1530,
      "ays": 1531,
      "UR": 1532,
      "//": 1533,
      "ĠSu": 1534,
      "ĠrÃ©sultats": 1535,
      "ttp": 1536,
      "ĠHeritage": 1537,
      "Ġ15": 1538,
      "Ġtime": 1539,
      "urer": 1540,
      "reement": 1541,
      "Ġfrancophon": 1542,
      "ians": 1543,
      "antes": 1544,
      "Ġgrand": 1545,
      "://": 1546,
      "rÃ©s": 1547,
      "Ġlim": 1548,
      "Ġmise": 1549,
      "nov": 1550,
      "Ġdroits": 1551,
      "Ġte": 1552,
      "Ġens": 1553,
      "Ġbi": 1554,
      "mble": 1555,
      "tien": 1556,
      "Ġsector": 1557,
      "alth": 1558,
      "Ġoffer": 1559,
      "iste": 1560,
      "Ġentreprises": 1561,
      "20": 1562,
      "road": 1563,
      "ata": 1564,
      "Ġprojets": 1565,
      "jet": 1566,
      "ĠcoÃ»": 1567,
      "rie": 1568,
      "ditions": 1569,
      "Ġmen": 1570,
      "Ġmost": 1571,
      "Ġbien": 1572,
      "19": 1573,
      "ĠBo": 1574,
      "Ġmoyen": 1575,
      "ĠAd": 1576,
      "Ġorganismes": 1577,
      "original": 1578,
      "ĠCommission": 1579,
      "arge": 1580,
      "AP": 1581,
      "Ġafin": 1582,
      "Ġproducts": 1583,
      "Ġprix": 1584,
      "reg": 1585,
      "Ġmust": 1586,
      "Ġcertain": 1587,
      "Ġprior": 1588,
      "Ġinto": 1589,
      "Ġactivities": 1590,
      "Ġtouris": 1591,
      "Ã©t": 1592,
      "Ġour": 1593,
      "ĠstratÃ©g": 1594,
      "oire": 1595,
      "ask": 1596,
      "Ġexemp": 1597,
      "Ġmajor": 1598,
      "Ġvale": 1599,
      "Ġplace": 1600,
      "Ġbes": 1601,
      "ning": 1602,
      "Ġtwo": 1603,
      "Ã©rie": 1604,
      "ires": 1605,
      "ĠGovernment": 1606,
      "Ġsoit": 1607,
      "Ġress": 1608,
      "Ġnouvel": 1609,
      "Ġtemp": 1610,
      "ĠmatiÃ¨re": 1611,
      "Ġbec": 1612,
      "An": 1613,
      "tern": 1614,
      "riculture": 1615,
      "ĠspÃ©": 1616,
      "Ġcur": 1617,
      "Ġactu": 1618,
      "Ġaugment": 1619,
      "Ġpeuvent": 1620,
      "Ġ2008": 1621,
      "ĠprÃ©v": 1622,
      "Ġcha": 1623,
      "AD": 1624,
      "Ġperform": 1625,
      "Ġmoins": 1626,
      "Ġ&": 1627,
      "for": 1628,
      "Ġavail": 1629,
      "era": 1630,
      "Ġyour": 1631,
      "ause": 1632,
      "very": 1633,
      "trang": 1634,
      "Ġparticipation": 1635,
      "ucture": 1636,
      "ĠPubl": 1637,
      "ust": 1638,
      "seil": 1639,
      "tains": 1640,
      "Ġsous": 1641,
      "Ġdirect": 1642,
      "ateur": 1643,
      "ĠtÃ©lÃ©": 1644,
      "Ġonly": 1645,
      "fs": 1646,
      "ank": 1647,
      "iod": 1648,
      "Ġassoci": 1649,
      "ĠDate": 1650,
      "arly": 1651,
      "eng": 1652,
      "aines": 1653,
      "ool": 1654,
      "ĠInc": 1655,
      "ĠUnivers": 1656,
      "istration": 1657,
      "ison": 1658,
      "orth": 1659,
      "dio": 1660,
      "Ġconsult": 1661,
      "tenir": 1662,
      "Ġmat": 1663,
      "ĠLoi": 1664,
      "Ġinstitutions": 1665,
      "ick": 1666,
      "enseignements": 1667,
      "ĠPol": 1668,
      "Ġdern": 1669,
      "Ġrespons": 1670,
      "Ġexper": 1671,
      "termin": 1672,
      "ĠMinist": 1673,
      "Ġnive": 1674,
      "Ġpropos": 1675,
      "orte": 1676,
      "Ġanal": 1677,
      "Ġoper": 1678,
      "Ġdocument": 1679,
      "ĠInternational": 1680,
      "ĠOntario": 1681,
      "ĠTh": 1682,
      "anti": 1683,
      "Ã´le": 1684,
      "hed": 1685,
      "Ġ11": 1686,
      "Ġrepres": 1687,
      "Ġdroit": 1688,
      "Ce": 1689,
      "ects": 1690,
      "Ġcommercial": 1691,
      "pro": 1692,
      "pportun": 1693,
      "Ġgu": 1694,
      "Ġcommunities": 1695,
      "Dans": 1696,
      "tant": 1697,
      "orer": 1698,
      "Ġpartie": 1699,
      "....": 1700,
      "Ġlangues": 1701,
      "rois": 1702,
      "ivent": 1703,
      "ĠWeb": 1704,
      "unes": 1705,
      "30": 1706,
      "Ġmarke": 1707,
      "ieu": 1708,
      "land": 1709,
      "Ġ.": 1710,
      "art": 1711,
      "Ġaddition": 1712,
      "ition": 1713,
      "ĠCons": 1714,
      "but": 1715,
      "eu": 1716,
      "tats": 1717,
      "Ġel": 1718,
      "Ġaccess": 1719,
      "Ġproject": 1720,
      "cid": 1721,
      "Ġans": 1722,
      "Ã´t": 1723,
      "Ġlanguage": 1724,
      "Ġfam": 1725,
      "Ġeach": 1726,
      "bility": 1727,
      "Ġcompan": 1728,
      "gc": 1729,
      "ĠnÃ©": 1730,
      "Ġfood": 1731,
      "Ġcompte": 1732,
      "ann": 1733,
      "Ġexam": 1734,
      "ults": 1735,
      "Ġche": 1736,
      "Ġcomple": 1737,
      "Ġbas": 1738,
      "Wh": 1739,
      "ĠrÃ©pond": 1740,
      ".,": 1741,
      "nent": 1742,
      "Ġincrease": 1743,
      "Ġorganizations": 1744,
      "otre": 1745,
      "Ã¹": 1746,
      "Ġke": 1747,
      "02": 1748,
      "ĠQue": 1749,
      "mment": 1750,
      "berta": 1751,
      "Ã¨g": 1752,
      "ĠbÃ©nÃ©": 1753,
      "ories": 1754,
      "Ġboth": 1755,
      "As": 1756,
      "otal": 1757,
      "lÃ¨": 1758,
      "Pour": 1759,
      "01": 1760,
      "uages": 1761,
      "ĠPatrimoine": 1762,
      "Ġref": 1763,
      "Ġmade": 1764,
      "Ġparticipants": 1765,
      "lectr": 1766,
      "Ġterrit": 1767,
      "ĠAboriginal": 1768,
      "ĠCanadiens": 1769,
      "Ġprofession": 1770,
      "IT": 1771,
      "Ġproc": 1772,
      "ĠIns": 1773,
      "________________": 1774,
      "AT": 1775,
      "Ġbud": 1776,
      "Ġcor": 1777,
      "ude": 1778,
      "Ġdoit": 1779,
      "Ġavailable": 1780,
      "Ġhow": 1781,
      "ĠCanadians": 1782,
      "ĠÅĵ": 1783,
      "Ġrigh": 1784,
      "Ġques": 1785,
      "Ġconsomm": 1786,
      "Ġquestions": 1787,
      "ĠRec": 1788,
      "ĠFrancophon": 1789,
      "Ġused": 1790,
      "Ġten": 1791,
      "ellement": 1792,
      "ators": 1793,
      "ains": 1794,
      "ĠReg": 1795,
      "uit": 1796,
      "ount": 1797,
      "ochtones": 1798,
      "lp": 1799,
      "ĠDevelop": 1800,
      "ĠpÃ©ri": 1801,
      "For": 1802,
      "Ġprovincial": 1803,
      "Ġfonction": 1804,
      "Ġmag": 1805,
      "Ġcop": 1806,
      "Ġquestion": 1807,
      "aiss": 1808,
      "Ġindustri": 1809,
      "inter": 1810,
      "Ġhttp": 1811,
      "ining": 1812,
      "Ã©rÃ©": 1813,
      "Ġconstitu": 1814,
      "Ġhelp": 1815,
      "Ġadd": 1816,
      "Ġ18": 1817,
      "Ġmesure": 1818,
      "ĠApp": 1819,
      "igr": 1820,
      "Ġmanagement": 1821,
      "Ġprovince": 1822,
      "Ġparten": 1823,
      "Ġpopulation": 1824,
      "isme": 1825,
      "ches": 1826,
      "issement": 1827,
      "anguage": 1828,
      "Ġpric": 1829,
      "ĠoÃ¹": 1830,
      "ĠfaÃ§": 1831,
      "04": 1832,
      "ĠCoun": 1833,
      "own": 1834,
      "CH": 1835,
      "ency": 1836,
      "ĠannÃ©es": 1837,
      "Canada": 1838,
      "aide": 1839,
      "Ġfinancial": 1840,
      "osts": 1841,
      "Ġincluding": 1842,
      "iÃ¨res": 1843,
      "Ġsystem": 1844,
      "Ġmeas": 1845,
      "intÃ©": 1846,
      "isc": 1847,
      "ĠCo": 1848,
      "rÃª": 1849,
      "lob": 1850,
      "Ġrespon": 1851,
      "RO": 1852,
      "Ġcanadiennes": 1853,
      "Ġtri": 1854,
      "Ġimpro": 1855,
      "Ġconsider": 1856,
      "Ġequ": 1857,
      "ough": 1858,
      "Ġju": 1859,
      "ĠNational": 1860,
      "Ġsci": 1861,
      "Ġ30": 1862,
      "Ġtrois": 1863,
      "Ġpai": 1864,
      "mber": 1865,
      "Ġrend": 1866,
      "Ġpolicy": 1867,
      "ENT": 1868,
      "ry": 1869,
      "--": 1870,
      "ĠAc": 1871,
      "Ġbu": 1872,
      "autÃ©s": 1873,
      "ĠdiffÃ©r": 1874,
      "Ġif": 1875,
      "ticle": 1876,
      "sid": 1877,
      "Ġeng": 1878,
      "Ġressources": 1879,
      "Ġpur": 1880,
      "Ġtaux": 1881,
      "Ġhum": 1882,
      "Ġestabl": 1883,
      "uel": 1884,
      "Ġsecond": 1885,
      "eau": 1886,
      "Ã¨mes": 1887,
      "Ġpass": 1888,
      "tat": 1889,
      "Ġcroiss": 1890,
      "Ġpot": 1891,
      "Ġsection": 1892,
      "Ġwww": 1893,
      "itte": 1894,
      "itob": 1895,
      "iel": 1896,
      "ential": 1897,
      "Ġrenseignements": 1898,
      "Ġwhere": 1899,
      "ties": 1900,
      "ame": 1901,
      "Ġopportun": 1902,
      "vidu": 1903,
      "ĠDevelopment": 1904,
      "ĠnÃ©cess": 1905,
      "Ġgre": 1906,
      "ĠAssociation": 1907,
      "05": 1908,
      "Ġpromotion": 1909,
      "Ġvi": 1910,
      "Ġfirst": 1911,
      "Ġidentif": 1912,
      "Ġarts": 1913,
      "tement": 1914,
      "Ġfacil": 1915,
      "Ġsuc": 1916,
      "Ġpersonnes": 1917,
      "ep": 1918,
      "iser": 1919,
      "lu": 1920,
      "Ġmembres": 1921,
      "ĠIN": 1922,
      "ily": 1923,
      "ordin": 1924,
      "Ġsans": 1925,
      "uses": 1926,
      "raient": 1927,
      "Ġ14": 1928,
      "ĠDes": 1929,
      "ili": 1930,
      "isl": 1931,
      "Com": 1932,
      "Ġdestin": 1933,
      "Ġissues": 1934,
      "ĠqualitÃ©": 1935,
      "Ġvaleur": 1936,
      "ĠCommun": 1937,
      "Ġwithin": 1938,
      "Ġknow": 1939,
      "Ġprovided": 1940,
      "Ġtravel": 1941,
      "Ġthose": 1942,
      "Ġlors": 1943,
      "roupe": 1944,
      "Ġprojects": 1945,
      "ĠcommunautÃ©s": 1946,
      "tenu": 1947,
      "15": 1948,
      "Ġprovinces": 1949,
      "06": 1950,
      "Ġrem": 1951,
      "Ġpoint": 1952,
      "Ġperiod": 1953,
      "tation": 1954,
      "nex": 1955,
      "ĠBr": 1956,
      "ception": 1957,
      "lementation": 1958,
      "ATION": 1959,
      "one": 1960,
      "CC": 1961,
      "Ġstrateg": 1962,
      "lect": 1963,
      "Ġofficial": 1964,
      "Ġbene": 1965,
      "Ã©ration": 1966,
      "ared": 1967,
      "estiv": 1968,
      "ĠministÃ¨re": 1969,
      "ĠResearch": 1970,
      "Ġcontinu": 1971,
      "edia": 1972,
      "14": 1973,
      "Ġinform": 1974,
      "ĠQuebec": 1975,
      "ople": 1976,
      "itoba": 1977,
      "Ġconsid": 1978,
      "istance": 1979,
      "Ġpossible": 1980,
      "Ġnature": 1981,
      "wa": 1982,
      "Ã®tre": 1983,
      "Ġvol": 1984,
      "ĠdÃ©ta": 1985,
      "Ġdiffer": 1986,
      "wan": 1987,
      "Ġmany": 1988,
      "Ġsignific": 1989,
      "Ġ13": 1990,
      "Ġhad": 1991,
      "antÃ©": 1992,
      "Ġartis": 1993,
      "ĠtrÃ¨s": 1994,
      "xim": 1995,
      "Ġdata": 1996,
      "ĠSoci": 1997,
      "Ġvotre": 1998,
      "Ġ198": 1999,
      "hi": 2000,
      "199": 2001,
      "antage": 2002,
      "verage": 2003,
      "ĠMinister": 2004,
      "Ġobjectifs": 2005,
      "Ġindividu": 2006,
      "omen": 2007,
      "Ġpolitique": 2008,
      "ĠfaÃ§on": 2009,
      "valu": 2010,
      "Ġ25": 2011,
      "Ġdoivent": 2012,
      "ized": 2013,
      "askat": 2014,
      "Ã©valuation": 2015,
      "Ġofficielles": 2016,
      "ï¬ģ": 2017,
      "Ġdocuments": 2018,
      "Ġev": 2019,
      "Ġseu": 2020,
      "Ġeffic": 2021,
      "Ġfonds": 2022,
      "Ġdesign": 2023,
      "lection": 2024,
      "Ġmesures": 2025,
      "ustr": 2026,
      "Ġsol": 2027,
      "âĢ¦": 2028,
      "quer": 2029,
      "Ġsituation": 2030,
      "ĠPlan": 2031,
      "cription": 2032,
      "Ġbase": 2033,
      "Ġ16": 2034,
      "Ġlead": 2035,
      "ĠsystÃ¨me": 2036,
      "Ġselon": 2037,
      "Ġdistribution": 2038,
      "ĠÃītats": 2039,
      "tac": 2040,
      "Ġcurrent": 2041,
      "ĠMe": 2042,
      "Ġocc": 2043,
      "ieurs": 2044,
      "king": 2045,
      "Ġsal": 2046,
      "inguis": 2047,
      "ĠTr": 2048,
      "ras": 2049,
      "Ġsurve": 2050,
      "ropri": 2051,
      "Ġimm": 2052,
      "ger": 2053,
      "Ġcontra": 2054,
      "Ġformation": 2055,
      "ites": 2056,
      "tta": 2057,
      "Ġfore": 2058,
      "Ġensure": 2059,
      "lectron": 2060,
      "erc": 2061,
      "Ġdep": 2062,
      "ieux": 2063,
      "Ġadv": 2064,
      "uring": 2065,
      "ren": 2066,
      "Ġcin": 2067,
      "oti": 2068,
      "Ġcould": 2069,
      "ĠSta": 2070,
      "Ġleg": 2071,
      "tend": 2072,
      "chool": 2073,
      "Ġinclude": 2074,
      "Ġ1999": 2075,
      "fore": 2076,
      "coura": 2077,
      "Ġniveau": 2078,
      "Ġbr": 2079,
      "Ġconditions": 2080,
      "Ġfollowing": 2081,
      "ful": 2082,
      "ĠDE": 2083,
      "Ġcosts": 2084,
      "ism": 2085,
      "ject": 2086,
      "Ġinitiatives": 2087,
      "tention": 2088,
      "Ġtax": 2089,
      "ĠMinistÃ¨re": 2090,
      "Ġeconomic": 2091,
      "Ġmodi": 2092,
      "tics": 2093,
      "organ": 2094,
      "Ġtoute": 2095,
      "Ġow": 2096,
      "ĠMont": 2097,
      "16": 2098,
      "cas": 2099,
      "Ġâ": 2100,
      "line": 2101,
      "Ġregion": 2102,
      "ĠInternet": 2103,
      "novation": 2104,
      "pl": 2105,
      "Ġchaque": 2106,
      "How": 2107,
      "25": 2108,
      "ograph": 2109,
      "ĠUniversity": 2110,
      "Ġtoutes": 2111,
      "mall": 2112,
      "ĠlÃ©g": 2113,
      "ward": 2114,
      "ished": 2115,
      "ication": 2116,
      "Ġexig": 2117,
      "Ġcontre": 2118,
      "ouve": 2119,
      "Au": 2120,
      "Ġgrowth": 2121,
      "Ġrepresent": 2122,
      "oires": 2123,
      "Ġfav": 2124,
      "ticultural": 2125,
      "regist": 2126,
      "Ġport": 2127,
      "abilitÃ©": 2128,
      "Ġprotection": 2129,
      "atis": 2130,
      "Ġpolitiques": 2131,
      "Ġprocessus": 2132,
      "Ġcroissance": 2133,
      "Ġwhen": 2134,
      "Ġresults": 2135,
      "Ġjeunes": 2136,
      "Ġach": 2137,
      "Ġdeli": 2138,
      "Ġcal": 2139,
      "ttawa": 2140,
      "ĠSec": 2141,
      "Ġnouveaux": 2142,
      "ĠFor": 2143,
      "Ġworld": 2144,
      "Ġfact": 2145,
      "ix": 2146,
      "Ġfer": 2147,
      "Ġcoop": 2148,
      "Ġ17": 2149,
      "uro": 2150,
      "07": 2151,
      "Ġpartners": 2152,
      "Ġdiffic": 2153,
      "ositions": 2154,
      "Ġdevrait": 2155,
      "OM": 2156,
      "Ġrelations": 2157,
      "Ġkey": 2158,
      "ference": 2159,
      "ize": 2160,
      "ĠConseil": 2161,
      "ĠÃ©conomique": 2162,
      "ĠfÃ©dÃ©ral": 2163,
      "tries": 2164,
      "Ġstat": 2165,
      "Ġset": 2166,
      "irc": 2167,
      "Ġautre": 2168,
      "ĠAu": 2169,
      "Ġcontrat": 2170,
      "Ġthem": 2171,
      "ĠOr": 2172,
      "ĠdÃ©penses": 2173,
      "quent": 2174,
      "CI": 2175,
      "loit": 2176,
      "vers": 2177,
      "ĠannÃ©e": 2178,
      "Ġproducteurs": 2179,
      "ĠComp": 2180,
      "mbre": 2181,
      "uss": 2182,
      "EM": 2183,
      "ator": 2184,
      "ĠTrade": 2185,
      "ĠDÃ©": 2186,
      "Ġtemps": 2187,
      "Ġcountry": 2188,
      "cil": 2189,
      "ower": 2190,
      "pes": 2191,
      "orpor": 2192,
      "ilm": 2193,
      "ĠManitoba": 2194,
      "ĠcoÃ»ts": 2195,
      "Ex": 2196,
      "Ġtrade": 2197,
      "ittee": 2198,
      "ĠInformation": 2199,
      "Ġpeople": 2200,
      "Ġcommunauta": 2201,
      "orting": 2202,
      "Ġinves": 2203,
      "fÃ©r": 2204,
      "ĠmarchÃ©s": 2205,
      "Ġapplication": 2206,
      "ĠNo": 2207,
      "rer": 2208,
      "oins": 2209,
      "glish": 2210,
      "af": 2211,
      "Ġgrande": 2212,
      "etwork": 2213,
      "Ġsus": 2214,
      "31": 2215,
      "Unis": 2216,
      "ization": 2217,
      "Ġfem": 2218,
      "Ġcommerce": 2219,
      "man": 2220,
      "tudes": 2221,
      "Ġradio": 2222,
      "Con": 2223,
      "Ġess": 2224,
      "olution": 2225,
      "uf": 2226,
      "ability": 2227,
      "Ġmake": 2228,
      "tivitÃ©": 2229,
      "Ġbenef": 2230,
      "atre": 2231,
      "ross": 2232,
      "tilisation": 2233,
      "iteurs": 2234,
      "ĠrÃ©alis": 2235,
      "Ġreconn": 2236,
      "Ġrapp": 2237,
      "Ġfrais": 2238,
      "serv": 2239,
      "08": 2240,
      "Ġgeneral": 2241,
      "Ġbroad": 2242,
      "Ġeducation": 2243,
      "ĠTe": 2244,
      "Ġhist": 2245,
      "Ces": 2246,
      "Ã©v": 2247,
      "Ġbeing": 2248,
      "Ġsen": 2249,
      "ĠTer": 2250,
      "omb": 2251,
      "entrepr": 2252,
      "eux": 2253,
      "itaire": 2254,
      "Ġencoura": 2255,
      "work": 2256,
      "ici": 2257,
      "ÃĢ": 2258,
      "ĠSaskat": 2259,
      "chewan": 2260,
      "vely": 2261,
      "ciaux": 2262,
      "ĠbÃ©nÃ©fic": 2263,
      "ureau": 2264,
      "Ġcompar": 2265,
      "Ġmusic": 2266,
      "uns": 2267,
      "Ġangl": 2268,
      "ĠÅĵuvre": 2269,
      "Ġspecific": 2270,
      "Ġinvest": 2271,
      "09": 2272,
      "ĠpÃ©riode": 2273,
      "urance": 2274,
      "Ġthree": 2275,
      "Ġnationale": 2276,
      "iments": 2277,
      "Ġexpected": 2278,
      "igne": 2279,
      "Ġ1998": 2280,
      "eting": 2281,
      "ĠdÃ©termin": 2282,
      "ders": 2283,
      "Ġestim": 2284,
      "Ġsera": 2285,
      "ouvoir": 2286,
      "mental": 2287,
      "Ġreview": 2288,
      "Ġconte": 2289,
      "Cette": 2290,
      "mbl": 2291,
      "ock": 2292,
      "Ġautochtones": 2293,
      "Ġquality": 2294,
      "Ġ/": 2295,
      "Ġappropri": 2296,
      "Ġfarm": 2297,
      "Ġpercent": 2298,
      "Ġprac": 2299,
      "Ġcertains": 2300,
      "echnolog": 2301,
      "Ġtrou": 2302,
      "Ġmand": 2303,
      "ĠÃ©trang": 2304,
      "ĠsociÃ©tÃ©": 2305,
      "Ġnorm": 2306,
      "urn": 2307,
      "ĠÃ©tait": 2308,
      "ĠvÃ©ri": 2309,
      "Ġfl": 2310,
      "Ġfinanc": 2311,
      "We": 2312,
      "Ã©ro": 2313,
      "Ġrespect": 2314,
      "mination": 2315,
      "Ġsee": 2316,
      "US": 2317,
      "ming": 2318,
      "ortion": 2319,
      "Ġrelative": 2320,
      "import": 2321,
      "18": 2322,
      "ĠÃ©c": 2323,
      "Ġserv": 2324,
      "Ġinvol": 2325,
      "Ġcountries": 2326,
      "Ġrecord": 2327,
      "Ġpresent": 2328,
      "ĠsÃ©": 2329,
      "Ġexemple": 2330,
      "Ġvue": 2331,
      "ĠÃ©v": 2332,
      "change": 2333,
      "Ġend": 2334,
      "Ġcollaboration": 2335,
      "Ġ100": 2336,
      "eti": 2337,
      "Ġinterest": 2338,
      "Ġorder": 2339,
      "ĠAcc": 2340,
      "Ġmembers": 2341,
      "cer": 2342,
      "ub": 2343,
      "hone": 2344,
      "ract": 2345,
      "Ġperformance": 2346,
      "off": 2347,
      "ield": 2348,
      "Ġtou": 2349,
      "Ġenti": 2350,
      "ĠFund": 2351,
      "Ġincreased": 2352,
      "ĠBoard": 2353,
      "tivitÃ©s": 2354,
      "UL": 2355,
      "urr": 2356,
      "Ġbesoins": 2357,
      "Ġcontinue": 2358,
      "ogn": 2359,
      "EL": 2360,
      "oront": 2361,
      "Ġduring": 2362,
      "ĠUS": 2363,
      "Ġbudget": 2364,
      "Ġlinguis": 2365,
      "ouvel": 2366,
      "Ġsug": 2367,
      "rir": 2368,
      "Ġatte": 2369,
      "eness": 2370,
      "Ã©ric": 2371,
      "red": 2372,
      "Ġcel": 2373,
      "oronto": 2374,
      "Ġcri": 2375,
      "ĠNorth": 2376,
      "ĠPer": 2377,
      "ĠprÃ©sente": 2378,
      "aliment": 2379,
      "urope": 2380,
      "ĠFin": 2381,
      "OL": 2382,
      "Ġ50": 2383,
      "ample": 2384,
      "Ġpeti": 2385,
      "ĠDirect": 2386,
      "ĠÃ©tudi": 2387,
      "ĠrÃ¨g": 2388,
      "Ġbel": 2389,
      "yse": 2390,
      "Ġnotre": 2391,
      "anding": 2392,
      "Ġsignificant": 2393,
      "@@": 2394,
      "Ġconcer": 2395,
      "istes": 2396,
      "Ġlarge": 2397,
      "Ġbil": 2398,
      "These": 2399,
      "meric": 2400,
      "Ġ31": 2401,
      "ĠÃ©lev": 2402,
      "Ġavoir": 2403,
      "ĠCouncil": 2404,
      "Ġlarg": 2405,
      "Ġmondi": 2406,
      "Ġplusieurs": 2407,
      "ĠsantÃ©": 2408,
      "fois": 2409,
      "Ġstudents": 2410,
      "22": 2411,
      "ris": 2412,
      "Ġmagaz": 2413,
      "vement": 2414,
      "eration": 2415,
      "tamment": 2416,
      "Ã©tabl": 2417,
      "Ġsuccess": 2418,
      "ĠImp": 2419,
      "IR": 2420,
      "Ġgroupes": 2421,
      "auteur": 2422,
      "ĠArts": 2423,
      "Ġple": 2424,
      "Ġgo": 2425,
      "Ġsame": 2426,
      "Ġful": 2427,
      "Ġrate": 2428,
      "ĠspÃ©cial": 2429,
      "ĠamÃ©li": 2430,
      "tact": 2431,
      "Ġquel": 2432,
      "Ġterme": 2433,
      "ĠNum": 2434,
      "ED": 2435,
      "Ãªtre": 2436,
      "Ġsources": 2437,
      "thor": 2438,
      "Ontario": 2439,
      "asing": 2440,
      "Ġbre": 2441,
      "Ġglob": 2442,
      "Ġrevenu": 2443,
      "AF": 2444,
      "Ġmil": 2445,
      "Ġaddress": 2446,
      "ministration": 2447,
      "Des": 2448,
      "atisf": 2449,
      "Ġcrit": 2450,
      "ĠMus": 2451,
      "Ag": 2452,
      "Ã¨le": 2453,
      "Ġpersonne": 2454,
      "ffaires": 2455,
      "Ġvalue": 2456,
      "vin": 2457,
      "ĠTotal": 2458,
      "Ġfavor": 2459,
      "Ġtend": 2460,
      "Ġsav": 2461,
      "ĠGu": 2462,
      "17": 2463,
      "Ġaid": 2464,
      "tric": 2465,
      "abor": 2466,
      "Ġministre": 2467,
      "Ġneeds": 2468,
      "cision": 2469,
      "Ġrespec": 2470,
      "âĢ¦âĢ¦": 2471,
      "24": 2472,
      "iÃ¨me": 2473,
      "28": 2474,
      "sp": 2475,
      "Ġsmall": 2476,
      "till": 2477,
      "Ãªte": 2478,
      "term": 2479,
      "ru": 2480,
      "Ġeu": 2481,
      "Ġagricoles": 2482,
      "Ġsoutien": 2483,
      "Ġdate": 2484,
      "Re": 2485,
      "CT": 2486,
      "Ġjour": 2487,
      "There": 2488,
      "Ġobjectives": 2489,
      "Ġtraining": 2490,
      "Ġresources": 2491,
      "Ġcontro": 2492,
      "Ġanalys": 2493,
      "Ch": 2494,
      "orial": 2495,
      "Ġrights": 2496,
      "blig": 2497,
      "ĠgÃ©nÃ©rale": 2498,
      "yrigh": 2499,
      "ĠContract": 2500,
      "Ġwhat": 2501,
      "ĠAgreement": 2502,
      "tist": 2503,
      "ĠgÃ©nÃ©ral": 2504,
      "Ġwhe": 2505,
      "ech": 2506,
      "Ġpuis": 2507,
      "Ġcost": 2508,
      "lus": 2509,
      "Ġlocal": 2510,
      "Ġpersonnel": 2511,
      "Ġbased": 2512,
      "Ġlo": 2513,
      "Canadian": 2514,
      "However": 2515,
      "RI": 2516,
      "mentaires": 2517,
      "ĠAlberta": 2518,
      "ĠStr": 2519,
      "Ġelle": 2520,
      "ĠIndustry": 2521,
      "ĠdÃ©c": 2522,
      "Ġrequired": 2523,
      "Ġcompanies": 2524,
      "Ġve": 2525,
      "Ġadop": 2526,
      "Ġlic": 2527,
      "ĠprÃ©c": 2528,
      "Ġfrancophones": 2529,
      "Ġenc": 2530,
      "ision": 2531,
      "Ġresult": 2532,
      "Ġimpact": 2533,
      "Ġils": 2534,
      "ensemble": 2535,
      "23": 2536,
      "ĠSaskatchewan": 2537,
      "wick": 2538,
      "Ġprobl": 2539,
      "ĠStatis": 2540,
      "ustral": 2541,
      "Ġefforts": 2542,
      "yant": 2543,
      "tude": 2544,
      "ving": 2545,
      "ake": 2546,
      "oint": 2547,
      "Ġfoc": 2548,
      "Ġnouvelles": 2549,
      "Ġcontent": 2550,
      "AS": 2551,
      "ĠReport": 2552,
      "Ġ1997": 2553,
      "Ġsup": 2554,
      "ĠEnglish": 2555,
      "Ġmis": 2556,
      "Ġvery": 2557,
      "Acc": 2558,
      "Ġareas": 2559,
      "Ġsocial": 2560,
      "Ġtrait": 2561,
      "Ġven": 2562,
      "Ġagricole": 2563,
      "ommun": 2564,
      "cies": 2565,
      "Ġlab": 2566,
      "Ġ24": 2567,
      "ipe": 2568,
      "Ġgood": 2569,
      "assi": 2570,
      "ĠAmeric": 2571,
      "Ġachie": 2572,
      "ĠHe": 2573,
      "Ġfois": 2574,
      "Ġrespond": 2575,
      "ĠrÃ©se": 2576,
      "illes": 2577,
      "Ġadminist": 2578,
      "accÃ¨s": 2579,
      "ĠAut": 2580,
      "uture": 2581,
      "ck": 2582,
      "ationaux": 2583,
      "Ġwhile": 2584,
      "fi": 2585,
      "Ġexperien": 2586,
      "Ġceux": 2587,
      "agne": 2588,
      "Ġchange": 2589,
      "Ġvoyages": 2590,
      "Ġfemmes": 2591,
      "Ġpossibil": 2592,
      "Ġwater": 2593,
      "unswick": 2594,
      "ancouver": 2595,
      "Ġtype": 2596,
      "Ġcontenu": 2597,
      ");": 2598,
      "ulations": 2599,
      "ĠfinanciÃ¨re": 2600,
      "Ġrelated": 2601,
      "Ġallow": 2602,
      "ishing": 2603,
      "Ġpost": 2604,
      "nels": 2605,
      "Ġshall": 2606,
      "Ġstand": 2607,
      "urther": 2608,
      "Ġnotamment": 2609,
      "ately": 2610,
      "Ġminority": 2611,
      "ĠLang": 2612,
      "ĠâĢĶ": 2613,
      "Ġcirc": 2614,
      "Ġgroups": 2615,
      "fe": 2616,
      "mework": 2617,
      "itiative": 2618,
      "ME": 2619,
      "mission": 2620,
      "umer": 2621,
      "Ġfour": 2622,
      "Ġseulement": 2623,
      "ledge": 2624,
      "Ġethn": 2625,
      "Ġaccep": 2626,
      "ouse": 2627,
      "Une": 2628,
      "ĠcapacitÃ©": 2629,
      "sibles": 2630,
      "Ġmonde": 2631,
      "aterial": 2632,
      "Ġcompeti": 2633,
      "Ġrecogn": 2634,
      "26": 2635,
      "Ġprovides": 2636,
      "portation": 2637,
      "Ġrendement": 2638,
      "onc": 2639,
      "Ġconcernant": 2640,
      "estival": 2641,
      "ĠPolicy": 2642,
      "Ã©m": 2643,
      "ĠmÃ©di": 2644,
      "ĠOfficial": 2645,
      "Ġ1996": 2646,
      "Ġschool": 2647,
      "Ġavant": 2648,
      "ĠPre": 2649,
      "Ġcamp": 2650,
      "Ġpourrait": 2651,
      "ification": 2652,
      "rement": 2653,
      "ĠauprÃ¨s": 2654,
      "outh": 2655,
      "Ġret": 2656,
      "ticip": 2657,
      "Ġproduit": 2658,
      "Ġtit": 2659,
      "Ġci": 2660,
      "ĠBusiness": 2661,
      "yright": 2662,
      "Ġamong": 2663,
      "ĠUnited": 2664,
      "ĠÃ©l": 2665,
      "Ġreceiv": 2666,
      "RA": 2667,
      "hold": 2668,
      "tish": 2669,
      "Ġless": 2670,
      "Ġmusique": 2671,
      "pos": 2672,
      "Ġhealth": 2673,
      "nel": 2674,
      "fter": 2675,
      "abit": 2676,
      "uch": 2677,
      "Ġshow": 2678,
      "Ġpremier": 2679,
      "tical": 2680,
      "Ã©tÃ©s": 2681,
      "Ġense": 2682,
      "uk": 2683,
      "ĸª": 2684,
      "rÃªt": 2685,
      "Ġagre": 2686,
      "ĠrÃ´le": 2687,
      "sive": 2688,
      "xt": 2689,
      "Ġexample": 2690,
      "Ġdra": 2691,
      ".\"": 2692,
      "Ġgroupe": 2693,
      "ules": 2694,
      "Ġdepuis": 2695,
      "etter": 2696,
      "Ġrecommand": 2697,
      "Ġ21": 2698,
      "Ġdoes": 2699,
      "ĠWh": 2700,
      "table": 2701,
      "Ã§u": 2702,
      "Ġcontributions": 2703,
      "Ġevaluation": 2704,
      "ĠBri": 2705,
      "language": 2706,
      "isse": 2707,
      "Ġsport": 2708,
      "ath": 2709,
      "Ġrev": 2710,
      "Ġcle": 2711,
      "Ġaliment": 2712,
      "itaires": 2713,
      "hib": 2714,
      "ĠToronto": 2715,
      "ft": 2716,
      "tems": 2717,
      "Ġfilm": 2718,
      "rig": 2719,
      "ĠService": 2720,
      "Ġ23": 2721,
      "rÃ©e": 2722,
      "Ã©di": 2723,
      "phone": 2724,
      "ĠExp": 2725,
      "Ġgovern": 2726,
      "Ġorig": 2727,
      "ĠPri": 2728,
      "Ġassess": 2729,
      "Ġath": 2730,
      "ength": 2731,
      "ĠdÃ©fin": 2732,
      "Ġrecommend": 2733,
      "Inter": 2734,
      "Ġseront": 2735,
      "utilisation": 2736,
      "TC": 2737,
      "Ġlieu": 2738,
      "NRC": 2739,
      "Ġvie": 2740,
      "Ġexamin": 2741,
      "Ġaw": 2742,
      "Ġeffectu": 2743,
      "alitÃ©": 2744,
      "derst": 2745,
      "itor": 2746,
      "ĠcompÃ©": 2747,
      "Ġplans": 2748,
      "Ġinterven": 2749,
      "Ã©conom": 2750,
      "ĠCl": 2751,
      "Ġraison": 2752,
      "clar": 2753,
      "Ġjur": 2754,
      "ĠSc": 2755,
      "issements": 2756,
      "ution": 2757,
      "missions": 2758,
      "aking": 2759,
      "Ġayant": 2760,
      "agn": 2761,
      "Ġaliments": 2762,
      "Ġpage": 2763,
      "ĠrÃ©du": 2764,
      "Ġperson": 2765,
      "iller": 2766,
      "Ġinternationale": 2767,
      "ĠWork": 2768,
      "Ġbecause": 2769,
      "ĠPCH": 2770,
      "Ġcrop": 2771,
      "Ġcompon": 2772,
      "uary": 2773,
      "article": 2774,
      "Ġspecial": 2775,
      "Ġannu": 2776,
      "cell": 2777,
      "orter": 2778,
      "ases": 2779,
      "ĠMarch": 2780,
      "be": 2781,
      "Ġmois": 2782,
      "Ġcompris": 2783,
      "Nous": 2784,
      "fÃ©rence": 2785,
      "Si": 2786,
      "rier": 2787,
      "Ġmarketing": 2788,
      "ĠGen": 2789,
      "Ġvole": 2790,
      "environ": 2791,
      "Ġsatisf": 2792,
      "Ġregard": 2793,
      "Ġdispon": 2794,
      "ĠProduc": 2795,
      "ĠFood": 2796,
      "ĠManagement": 2797,
      "Ġtitre": 2798,
      "Ġproducers": 2799,
      "loi": 2800,
      "lication": 2801,
      "ina": 2802,
      "Ġclients": 2803,
      "Ġapproach": 2804,
      "Ġcontrol": 2805,
      "Ġlaw": 2806,
      "21": 2807,
      "Ġrole": 2808,
      "tructure": 2809,
      "Ġterms": 2810,
      "Ġmention": 2811,
      "ĠÃ©lÃ©": 2812,
      "estic": 2813,
      "ĠÃ©taient": 2814,
      "ression": 2815,
      "ĠFrancophone": 2816,
      "Ġcoordin": 2817,
      "pendant": 2818,
      "Ġvoyage": 2819,
      "ritann": 2820,
      "Ġagreement": 2821,
      "Ġgiv": 2822,
      "umb": 2823,
      "Ġsales": 2824,
      "Ġcapital": 2825,
      "uits": 2826,
      "ĠNord": 2827,
      "Ġâĸª": 2828,
      "levision": 2829,
      "ides": 2830,
      "mon": 2831,
      "hips": 2832,
      "Ġconcurr": 2833,
      "Ġtransfer": 2834,
      "appro": 2835,
      "Ġconse": 2836,
      "Ġpropri": 2837,
      "Ġnouveau": 2838,
      "Ġindustries": 2839,
      "chang": 2840,
      "Ġmeille": 2841,
      "Ġoblig": 2842,
      "ĠVancouver": 2843,
      "ees": 2844,
      "Ĥ¬": 2845,
      "Ġinst": 2846,
      "ĠcommunautÃ©": 2847,
      "27": 2848,
      "Ġconsul": 2849,
      "ĠOttawa": 2850,
      "Ġarea": 2851,
      "ĠEconom": 2852,
      "ĠCommittee": 2853,
      "ium": 2854,
      "Ġmaterial": 2855,
      "ĠAgriculture": 2856,
      "ee": 2857,
      "ĠFond": 2858,
      "airs": 2859,
      "29": 2860,
      "Ġ>": 2861,
      "atifs": 2862,
      "Ã©p": 2863,
      "dex": 2864,
      "Ġcomb": 2865,
      "ced": 2866,
      "Â«": 2867,
      "endant": 2868,
      "truction": 2869,
      "mit": 2870,
      "ĠCAN": 2871,
      "âĢĵ": 2872,
      "ĠÃ©qu": 2873,
      "Ġview": 2874,
      "Ġaur": 2875,
      "Ġproduct": 2876,
      "ĠBank": 2877,
      "allen": 2878,
      "Ġcet": 2879,
      "ime": 2880,
      "ultures": 2881,
      "quÃ©": 2882,
      "inf": 2883,
      "Ã©riel": 2884,
      "Ġtechnologies": 2885,
      "ĠEurope": 2886,
      "ĠrÃ©gions": 2887,
      "Ġsim": 2888,
      "cto": 2889,
      "Ġaverage": 2890,
      "mont": 2891,
      "oura": 2892,
      "arter": 2893,
      "cast": 2894,
      "Ġcase": 2895,
      "ĠMon": 2896,
      "Ġprom": 2897,
      "Ġopportunities": 2898,
      "ID": 2899,
      "Ġ*": 2900,
      "Ġfuture": 2901,
      "Ġrequirements": 2902,
      "annÃ©e": 2903,
      "Ġdifferent": 2904,
      "Ġnos": 2905,
      "ason": 2906,
      "Ġplu": 2907,
      "Ġcompos": 2908,
      "Ġvarious": 2909,
      "ustice": 2910,
      "Ġpoints": 2911,
      "ĠMex": 2912,
      "anque": 2913,
      "ĠCour": 2914,
      "tissement": 2915,
      "venir": 2916,
      "aille": 2917,
      "tegr": 2918,
      "Ġtable": 2919,
      "Ġstrong": 2920,
      "RE": 2921,
      "ciale": 2922,
      "cisions": 2923,
      "ĠaprÃ¨s": 2924,
      "ĠSh": 2925,
      "Ġfai": 2926,
      "Ġsince": 2927,
      "aries": 2928,
      "To": 2929,
      "pond": 2930,
      "Ġparties": 2931,
      "Ou": 2932,
      "ĠdiversitÃ©": 2933,
      "Ġlevels": 2934,
      "Ġunderst": 2935,
      "Ġtypes": 2936,
      "rÃ©al": 2937,
      "ĠInstitu": 2938,
      "tices": 2939,
      "ĠnÃ©g": 2940,
      "Ġadmis": 2941,
      "Ã©ment": 2942,
      "anch": 2943,
      "Ġlog": 2944,
      "ics": 2945,
      "apport": 2946,
      "Ġpolic": 2947,
      "Ġfound": 2948,
      "ĠJap": 2949,
      "ey": 2950,
      "Ġfaut": 2951,
      "Ġorganization": 2952,
      "Ġbill": 2953,
      "mation": 2954,
      "Ġetc": 2955,
      "ĠPr": 2956,
      "Ġtradition": 2957,
      "Ġworks": 2958,
      "des": 2959,
      "vious": 2960,
      "ĠOrgan": 2961,
      "onnes": 2962,
      "Ġcommit": 2963,
      "Ġsimp": 2964,
      "eff": 2965,
      "MC": 2966,
      "Ġproven": 2967,
      "Ġintern": 2968,
      "Ġmulti": 2969,
      "ament": 2970,
      "ĠÂ»,": 2971,
      "ps": 2972,
      "Ġtake": 2973,
      "ames": 2974,
      "ĠdÃ©f": 2975,
      "ĠBritish": 2976,
      "eries": 2977,
      "Ġnet": 2978,
      "roaliment": 2979,
      "Ġ41": 2980,
      "Ġlanguages": 2981,
      "Ġvisant": 2982,
      "Ġfocus": 2983,
      "Ã¢ce": 2984,
      "yn": 2985,
      "ird": 2986,
      "âĤ¬": 2987,
      "ctu": 2988,
      "Ġstudy": 2989,
      "If": 2990,
      "Ġaccoun": 2991,
      "Ġaction": 2992,
      "Ġmarkets": 2993,
      "Ġconduc": 2994,
      "Ġgrain": 2995,
      "Ġincome": 2996,
      "Ġencore": 2997,
      "Ġmieux": 2998,
      "Ġvo": 2999,
      "quement": 3000,
      "antages": 3001,
      "DF": 3002,
      "ned": 3003,
      "ĠLanguages": 3004,
      "Ġsubs": 3005,
      "Ġdeveloped": 3006,
      "Ġdemandes": 3007,
      "ĠCC": 3008,
      "Ġwomen": 3009,
      "Ġrapports": 3010,
      "cul": 3011,
      "orporation": 3012,
      "Ġmettre": 3013,
      "Ġstructure": 3014,
      "cy": 3015,
      "ink": 3016,
      "aci": 3017,
      "rastructure": 3018,
      "Ġprice": 3019,
      "isting": 3020,
      "tenant": 3021,
      "Ġappli": 3022,
      "Ġrap": 3023,
      "Ġrecent": 3024,
      "Ġbuild": 3025,
      "ĠamÃ©ric": 3026,
      "Ġloi": 3027,
      "Ġrais": 3028,
      "Ġmars": 3029,
      "DU": 3030,
      "ritannique": 3031,
      "Ġposi": 3032,
      "ĠdÃ©taill": 3033,
      "pecial": 3034,
      "ĠprÃª": 3035,
      "unic": 3036,
      "Ġfisc": 3037,
      "sig": 3038,
      "AU": 3039,
      "tistes": 3040,
      "nexe": 3041,
      "int": 3042,
      "agra": 3043,
      "enne": 3044,
      "ĠpremiÃ¨re": 3045,
      "ĠcatÃ©g": 3046,
      "oss": 3047,
      "Ġdue": 3048,
      "Ġforeign": 3049,
      "ery": 3050,
      "ĠAt": 3051,
      "Ġcommunication": 3052,
      "exam": 3053,
      "erg": 3054,
      "atory": 3055,
      "Ġknowledge": 3056,
      "Ġcultures": 3057,
      "ĠOF": 3058,
      "ather": 3059,
      "coup": 3060,
      "Ġdomaine": 3061,
      "HV": 3062,
      "Ass": 3063,
      "Ġpratiques": 3064,
      "ĠCR": 3065,
      "encies": 3066,
      "ights": 3067,
      "Ã©cur": 3068,
      "tÃ©e": 3069,
      "ipment": 3070,
      "ĠTÃ©lÃ©": 3071,
      "ussions": 3072,
      "unicip": 3073,
      "ĠÃ©lectron": 3074,
      "Ġbetter": 3075,
      "Ġcapacity": 3076,
      "ĠÃ©tablissements": 3077,
      "mail": 3078,
      "aces": 3079,
      "Ġfind": 3080,
      "uy": 3081,
      "ĠTrans": 3082,
      "Ġconsommateurs": 3083,
      "thÃ¨": 3084,
      "ront": 3085,
      "ler": 3086,
      "2004": 3087,
      "Ġconform": 3088,
      "Ġ28": 3089,
      "Ġafter": 3090,
      "ĠSen": 3091,
      "ibles": 3092,
      "igible": 3093,
      ".-": 3094,
      "bilitÃ©": 3095,
      "Ġauthor": 3096,
      "ries": 3097,
      "other": 3098,
      "cre": 3099,
      "At": 3100,
      "Ġpotential": 3101,
      "Ġmeeting": 3102,
      "PP": 3103,
      "olume": 3104,
      "Ġexist": 3105,
      "Ġligne": 3106,
      "Ġsein": 3107,
      "ĠSe": 3108,
      "Ġincreasing": 3109,
      "umbia": 3110,
      "Ġplupart": 3111,
      "Ġventes": 3112,
      "ĠCar": 3113,
      "iÃ¨rement": 3114,
      "Ġgar": 3115,
      "Ġjusqu": 3116,
      "odes": 3117,
      "Ġsecteurs": 3118,
      "idence": 3119,
      "ĠprÃ©par": 3120,
      "ĠrÃ©pondants": 3121,
      "any": 3122,
      "Ġacross": 3123,
      "Ġvertu": 3124,
      "igration": 3125,
      "Ġtechnologie": 3126,
      "aison": 3127,
      "ĠcrÃ©ation": 3128,
      "Ġind": 3129,
      "ĠIs": 3130,
      "ality": 3131,
      "Ġsk": 3132,
      "perty": 3133,
      "ĠEd": 3134,
      "Ġimprove": 3135,
      "Ġanglais": 3136,
      "LE": 3137,
      "ĠTV": 3138,
      "diff": 3139,
      "Ġcentres": 3140,
      "Ġsurvey": 3141,
      "ht": 3142,
      "Ġadministra": 3143,
      "Ġ40": 3144,
      "Ġ27": 3145,
      "avantage": 3146,
      "Ġhigher": 3147,
      "ĠbÃ©nÃ©fici": 3148,
      "Ġofficielle": 3149,
      "Ã©raux": 3150,
      "ĠTable": 3151,
      "Ġsix": 3152,
      "ling": 3153,
      "Ġpartenari": 3154,
      "elf": 3155,
      "Ġpo": 3156,
      "onde": 3157,
      "ĠmÃ©th": 3158,
      "Ġprog": 3159,
      "Ġdou": 3160,
      "Ġtre": 3161,
      "ĠColumbia": 3162,
      "ueil": 3163,
      "rieur": 3164,
      "ager": 3165,
      "ĠStates": 3166,
      "igure": 3167,
      "blio": 3168,
      "UE": 3169,
      "Ġchanges": 3170,
      "Ġdevraient": 3171,
      "Ġconnaiss": 3172,
      "Ġacqu": 3173,
      "Ġmeasures": 3174,
      "Ġdimin": 3175,
      "ĠsupÃ©rie": 3176,
      "grÃ©": 3177,
      "Ġinstitution": 3178,
      "%)": 3179,
      "ends": 3180,
      "Ġremp": 3181,
      "amÃ©li": 3182,
      "ecess": 3183,
      "Ġbeau": 3184,
      "Ġ26": 3185,
      "Ġdomestic": 3186,
      "Ġbefore": 3187,
      "Ġcher": 3188,
      "ha": 3189,
      "lements": 3190,
      "Ġnetwork": 3191,
      "less": 3192,
      "Ġshare": 3193,
      "Ġrisk": 3194,
      "........": 3195,
      "ĠOther": 3196,
      "Ġrelev": 3197,
      "Ġcertaines": 3198,
      "ĠFestival": 3199,
      "euvre": 3200,
      "Ġaudit": 3201,
      "2006": 3202,
      "enn": 3203,
      "att": 3204,
      "Ġlear": 3205,
      "bs": 3206,
      "Ġregional": 3207,
      "ĠRoy": 3208,
      "ĠPh": 3209,
      "Ġmonth": 3210,
      "Ã©nement": 3211,
      "tÃ©s": 3212,
      "Ġsource": 3213,
      "IP": 3214,
      "Ġdonn": 3215,
      "Ġ+": 3216,
      "riel": 3217,
      "ĠSp": 3218,
      "su": 3219,
      "erve": 3220,
      "ĠComitÃ©": 3221,
      "Ã©rique": 3222,
      "Ġpermis": 3223,
      "Ġfrancophone": 3224,
      "Ã©conomie": 3225,
      "ular": 3226,
      "ĠMontrÃ©al": 3227,
      "Ġposition": 3228,
      "naires": 3229,
      "ĠOffice": 3230,
      "ĠCent": 3231,
      "atif": 3232,
      "ension": 3233,
      "ĠPublic": 3234,
      "Ġnow": 3235,
      "islation": 3236,
      "tage": 3237,
      "Ġinitiative": 3238,
      "Ġproportion": 3239,
      "ĠSport": 3240,
      "ombie": 3241,
      "Ġassociations": 3242,
      "Ġmaxim": 3243,
      "ĠÃ©tudiants": 3244,
      "film": 3245,
      "ĠJustice": 3246,
      "Ġjou": 3247,
      "read": 3248,
      "wh": 3249,
      "entreprise": 3250,
      "erce": 3251,
      "Ġannual": 3252,
      "ĠprÃ©cis": 3253,
      "Ġtour": 3254,
      "ĠDec": 3255,
      "administration": 3256,
      "LO": 3257,
      "Ġprivate": 3258,
      "ctions": 3259,
      "Ġ22": 3260,
      "Ġanim": 3261,
      "Ġrevenus": 3262,
      "Ġcinq": 3263,
      "Ġinterview": 3264,
      "Ġsoient": 3265,
      "Ġprincipaux": 3266,
      "Ġmulticultural": 3267,
      "though": 3268,
      "Ã©curitÃ©": 3269,
      "indre": 3270,
      "ĠTechnolog": 3271,
      "Ġamount": 3272,
      "ĠGra": 3273,
      "Ġstaff": 3274,
      "gu": 3275,
      "Ġviol": 3276,
      "Ġmal": 3277,
      "Rec": 3278,
      "ĠProf": 3279,
      "yc": 3280,
      "ĠcontrÃ´le": 3281,
      "Ġ197": 3282,
      "Ġtant": 3283,
      "to": 3284,
      "ufact": 3285,
      "Ġeffective": 3286,
      "arch": 3287,
      "Ġfunds": 3288,
      "ĠDirector": 3289,
      "Ġpendant": 3290,
      "oul": 3291,
      "Ġengag": 3292,
      "lace": 3293,
      "Ġsites": 3294,
      "ĠAm": 3295,
      "AG": 3296,
      "Ġenf": 3297,
      "Univers": 3298,
      "tail": 3299,
      "ommes": 3300,
      "Ġdelivery": 3301,
      "usse": 3302,
      "Ġminim": 3303,
      "alyse": 3304,
      "CE": 3305,
      "ĠGeneral": 3306,
      "Ġcelui": 3307,
      "Ġauc": 3308,
      "Ġsep": 3309,
      "Ġexportations": 3310,
      "They": 3311,
      "ĠÂ».": 3312,
      "Ġfurther": 3313,
      "itiz": 3314,
      "vincial": 3315,
      "Ġmedia": 3316,
      "htm": 3317,
      "Ġagain": 3318,
      "Ġhabit": 3319,
      "Ġsavoir": 3320,
      "Ġincluded": 3321,
      "Ġexcl": 3322,
      "hod": 3323,
      "Ġbesoin": 3324,
      "IL": 3325,
      "Ġhistor": 3326,
      "entiel": 3327,
      "Ġdefin": 3328,
      "sident": 3329,
      "Ġassistance": 3330,
      "Ġbeaucoup": 3331,
      "Ġlast": 3332,
      "Ġtechnology": 3333,
      "asse": 3334,
      "Ġdistribu": 3335,
      "IST": 3336,
      "Ġnecess": 3337,
      "CO": 3338,
      "ĠCal": 3339,
      "Ġbasis": 3340,
      "odi": 3341,
      "ĠON": 3342,
      "60": 3343,
      "Ġchild": 3344,
      "Ġsem": 3345,
      "Ġjourn": 3346,
      "ĠQu": 3347,
      "Ġissue": 3348,
      "ĠdÃ©clar": 3349,
      "ĠvÃ©rification": 3350,
      "euille": 3351,
      "Ġsever": 3352,
      "Ġcerti": 3353,
      "Ã¯": 3354,
      "UN": 3355,
      "Ħ¢": 3356,
      "Ġenh": 3357,
      "Ġobtenir": 3358,
      "âĦ¢": 3359,
      "Ġfive": 3360,
      "Ġway": 3361,
      "Ġfont": 3362,
      "oix": 3363,
      "based": 3364,
      "chelle": 3365,
      "Ġwhether": 3366,
      "Ġimplementation": 3367,
      "urb": 3368,
      "iÃ©": 3369,
      "2003": 3370,
      "Ġpor": 3371,
      "ï¬Ĥ": 3372,
      "Ġcommunications": 3373,
      "Ġperspec": 3374,
      "loitation": 3375,
      "Ġvolet": 3376,
      "ident": 3377,
      "Ġ35": 3378,
      "put": 3379,
      "sence": 3380,
      "Ġfar": 3381,
      "alf": 3382,
      "ĠNRC": 3383,
      "Ġquatre": 3384,
      "Ġdonc": 3385,
      "ĠmÃ©dias": 3386,
      "Ġ#": 3387,
      "Ġestablish": 3388,
      "Ġsujet": 3389,
      "Ġdos": 3390,
      "Ġcentr": 3391,
      "ishers": 3392,
      "Ġdiversity": 3393,
      "HE": 3394,
      "Ġcelle": 3395,
      "voir": 3396,
      "44": 3397,
      "Ad": 3398,
      "Ġlist": 3399,
      "Ã®ne": 3400,
      "oit": 3401,
      "alitÃ©s": 3402,
      "tained": 3403,
      "ĠPra": 3404,
      "Ġconcl": 3405,
      "Ġformul": 3406,
      "encont": 3407,
      "Ġpartenaires": 3408,
      "respond": 3409,
      "ĠAN": 3410,
      "Ġreceived": 3411,
      "pects": 3412,
      "ĠCANAD": 3413,
      "Ġfinal": 3414,
      "Ġestablished": 3415,
      "tively": 3416,
      "autre": 3417,
      "acy": 3418,
      "Ġculturelles": 3419,
      "ĠuniversitÃ©s": 3420,
      "Ġfilms": 3421,
      "ĠBureau": 3422,
      "Ġimportance": 3423,
      "Ġpolicies": 3424,
      "Ġconsultation": 3425,
      "Ã©laboration": 3426,
      "Ġlow": 3427,
      "Ġelles": 3428,
      "Ġsimil": 3429,
      "Ã©dition": 3430,
      "ĠII": 3431,
      "ĠdÃ©j": 3432,
      "Ġpublications": 3433,
      "Ġmeet": 3434,
      "Ġsupply": 3435,
      "âĤ¬âĦ¢": 3436,
      "Ġhand": 3437,
      "changes": 3438,
      "occ": 3439,
      "Ġavons": 3440,
      "Ġpractices": 3441,
      "ury": 3442,
      "mary": 3443,
      "ĠProv": 3444,
      "Ġbenefits": 3445,
      "Ġchar": 3446,
      "Ġadditional": 3447,
      "Ġintervenants": 3448,
      "iff": 3449,
      "OC": 3450,
      "Ġmoyenne": 3451,
      "Ġeconomy": 3452,
      "Ġbar": 3453,
      "Ġobserv": 3454,
      "TS": 3455,
      "Ġmeasure": 3456,
      "Ġglobal": 3457,
      "Ġown": 3458,
      "ĠrÃ©seau": 3459,
      "Ġnouvelle": 3460,
      "ercice": 3461,
      "Ġtourisme": 3462,
      "Ġagricultural": 3463,
      "Ġintegr": 3464,
      "ĠPart": 3465,
      "Britannique": 3466,
      "ĠÃ©valu": 3467,
      "Ġhuman": 3468,
      "ĠfÃ©dÃ©raux": 3469,
      "Ġim": 3470,
      "Ġprices": 3471,
      "Ouest": 3472,
      "nelle": 3473,
      "intÃ©rÃªt": 3474,
      "arget": 3475,
      "time": 3476,
      "ĠconsÃ©qu": 3477,
      "ĠLi": 3478,
      "----": 3479,
      "100": 3480,
      "roÃ®tre": 3481,
      "ĠÃ©tudes": 3482,
      "âĢĶ": 3483,
      "rol": 3484,
      "Ã©rer": 3485,
      ".)": 3486,
      "2005": 3487,
      "ĠmatÃ©riel": 3488,
      "55": 3489,
      "Ġchallen": 3490,
      "Ġsouvent": 3491,
      "Ġfull": 3492,
      "ĠMul": 3493,
      "ĠministÃ¨res": 3494,
      "tudies": 3495,
      "ined": 3496,
      "Ã¨ne": 3497,
      "Ġworking": 3498,
      "ley": 3499,
      "ĠForm": 3500,
      "ĠCap": 3501,
      "assurer": 3502,
      "ĠFe": 3503,
      "Ġavait": 3504,
      "ĠaccÃ¨s": 3505,
      "Ġexigences": 3506,
      "Ãītat": 3507,
      "lected": 3508,
      "Ġautor": 3509,
      "Ġconcent": 3510,
      "Ġdavantage": 3511,
      "ĠAff": 3512,
      "partments": 3513,
      "the": 3514,
      "ĠBanque": 3515,
      "met": 3516,
      "Ġproble": 3517,
      "Ġlui": 3518,
      "ersion": 3519,
      "ĠGr": 3520,
      "Ġher": 3521,
      "ventions": 3522,
      "Ġscol": 3523,
      "aÃ®tre": 3524,
      "aper": 3525,
      "Ġbl": 3526,
      "Ġquanti": 3527,
      "ict": 3528,
      "Ġrenfor": 3529,
      "alisation": 3530,
      "Ġmuch": 3531,
      "Ġrural": 3532,
      "emploi": 3533,
      "gin": 3534,
      "ceed": 3535,
      "Ġplay": 3536,
      "Ġinde": 3537,
      "Ġprendre": 3538,
      "Ġfournir": 3539,
      "ĠrÃ©c": 3540,
      "dre": 3541,
      "Ġsl": 3542,
      "Ġfab": 3543,
      "Ġneg": 3544,
      "ĠsociÃ©tÃ©s": 3545,
      "Ġanalysis": 3546,
      "Ġinflu": 3547,
      "ule": 3548,
      "Ġbiens": 3549,
      "Ġappropriate": 3550,
      "Ġusing": 3551,
      "Ġmunicip": 3552,
      "ĠJan": 3553,
      "Ġcompany": 3554,
      "Ġgiven": 3555,
      "Ġciv": 3556,
      "Ġstrength": 3557,
      "ying": 3558,
      "oks": 3559,
      "Ġcare": 3560,
      "itoy": 3561,
      "itre": 3562,
      "day": 3563,
      "Ġparticular": 3564,
      "org": 3565,
      "Ġstatis": 3566,
      "registrement": 3567,
      "Ġevents": 3568,
      "66": 3569,
      "ĠPRO": 3570,
      "ĠAustral": 3571,
      "Ar": 3572,
      "uman": 3573,
      "Ġalors": 3574,
      "Ã©trang": 3575,
      "ussion": 3576,
      "ĠdonnÃ©": 3577,
      "Ġ29": 3578,
      "Ġtransport": 3579,
      "Ġoutre": 3580,
      "ocks": 3581,
      "ST": 3582,
      "Ġproductions": 3583,
      "Ġcorrespond": 3584,
      "irst": 3585,
      "ives": 3586,
      "ĠHealth": 3587,
      "ĠnÃ©cessaire": 3588,
      "ĠÃ©lÃ©ments": 3589,
      "gation": 3590,
      "Ġtool": 3591,
      "ĠColombie": 3592,
      "Ġouts": 3593,
      "ums": 3594,
      "Ġnombreux": 3595,
      "Accord": 3596,
      "Ġmeans": 3597,
      "App": 3598,
      "affaires": 3599,
      "econd": 3600,
      "ĠRep": 3601,
      "ills": 3602,
      "Ġenter": 3603,
      "Ġmoment": 3604,
      "Ġparagra": 3605,
      "Ġdossi": 3606,
      "aid": 3607,
      "ĠNumber": 3608,
      "Ġtrava": 3609,
      "Ġdifficult": 3610,
      "crib": 3611,
      "ĠFederal": 3612,
      "Ġbiling": 3613,
      "resse": 3614,
      "AM": 3615,
      "iennes": 3616,
      "Ġagencies": 3617,
      "Ġmilli": 3618,
      "Ġenvironment": 3619,
      "Ġcommunautaire": 3620,
      "Ġsucc": 3621,
      "Ġoffre": 3622,
      "Ġoverall": 3623,
      "Ġtak": 3624,
      "Ġvisit": 3625,
      "ĠFonds": 3626,
      "ĠrÃ©fÃ©rence": 3627,
      "ĠWorld": 3628,
      "Ġinvestment": 3629,
      "Ġair": 3630,
      "Ġlik": 3631,
      "Ã©tranger": 3632,
      "88": 3633,
      "ove": 3634,
      "Ã©ducation": 3635,
      "quÃªte": 3636,
      "ĠMusic": 3637,
      "Ġdecl": 3638,
      "33": 3639,
      "Ġsugg": 3640,
      "Ġagents": 3641,
      "Ġattribu": 3642,
      "ĠfranÃ§aise": 3643,
      "importance": 3644,
      "Ġprincipal": 3645,
      "Ġaj": 3646,
      "igital": 3647,
      "Ġconv": 3648,
      "Ġmilieu": 3649,
      "ĠdÃ©jÃł": 3650,
      "Ġfinancier": 3651,
      "ĠNom": 3652,
      "ĠemployÃ©s": 3653,
      "ĠCultural": 3654,
      "Ġtourism": 3655,
      "ourable": 3656,
      "Ġcelles": 3657,
      "ribut": 3658,
      "ĠgrÃ¢ce": 3659,
      "Ġbillion": 3660,
      "Ġlit": 3661,
      "Ġreal": 3662,
      "ĠCM": 3663,
      "itures": 3664,
      "rad": 3665,
      "Ġrisques": 3666,
      "ustom": 3667,
      "itable": 3668,
      "ĠFrance": 3669,
      "Ġenvironnement": 3670,
      "co": 3671,
      "holders": 3672,
      "75": 3673,
      "Ġhis": 3674,
      "ĠsÃ©curitÃ©": 3675,
      "Ġpouvoir": 3676,
      "appui": 3677,
      "lles": 3678,
      "Ġdeme": 3679,
      "ists": 3680,
      "ĠDirection": 3681,
      "ril": 3682,
      "ĠdÃ©terminer": 3683,
      "Ġbest": 3684,
      "uter": 3685,
      "Ġcommon": 3686,
      "ervation": 3687,
      "Ġconsommation": 3688,
      "Ġculturels": 3689,
      "ouveau": 3690,
      "Ġcentre": 3691,
      "Ġpertin": 3692,
      "Ġpromote": 3693,
      "Ġculturelle": 3694,
      "effic": 3695,
      "Ġfile": 3696,
      "Ġteach": 3697,
      "ĠNouvel": 3698,
      "ĠsystÃ¨mes": 3699,
      "Ġpublique": 3700,
      "cop": 3701,
      "Ġidenti": 3702,
      "Ġasse": 3703,
      "Ã©taire": 3704,
      "urity": 3705,
      "Ġdistin": 3706,
      "ĠderniÃ¨res": 3707,
      "Ġcommunautaires": 3708,
      "Ġ60": 3709,
      "Ġartistes": 3710,
      "gen": 3711,
      "Ġrecherches": 3712,
      "Ġgreater": 3713,
      "40": 3714,
      "pendent": 3715,
      "Ġcou": 3716,
      "acitÃ©": 3717,
      "Ġtari": 3718,
      "roalimentaire": 3719,
      "Qu": 3720,
      "Ġartists": 3721,
      "Ġsystems": 3722,
      "Ġrelatives": 3723,
      "Ġthen": 3724,
      "43": 3725,
      "Ġca": 3726,
      "fications": 3727,
      "Ġframework": 3728,
      "ĠrÃ©un": 3729,
      "Ġclass": 3730,
      "Ġfun": 3731,
      "orie": 3732,
      "Ġsuite": 3733,
      "Selon": 3734,
      "Ġremain": 3735,
      "Ġimmigr": 3736,
      "ĠAgency": 3737,
      "rim": 3738,
      "Ġimportante": 3739,
      "Ġactivity": 3740,
      "Ġoeuvre": 3741,
      "Ġpatrimoine": 3742,
      "Ġ1995": 3743,
      "jours": 3744,
      "ĠDet": 3745,
      "ĠAs": 3746,
      "Ġvente": 3747,
      "Ġidentified": 3748,
      "Ġeffet": 3749,
      "Ġseveral": 3750,
      "ĠJe": 3751,
      "Ġentreprise": 3752,
      "Ġrisque": 3753,
      "environnement": 3754,
      "pose": 3755,
      "Ġenfants": 3756,
      "oung": 3757,
      "aj": 3758,
      "Ġtex": 3759,
      "Ġrange": 3760,
      "Ġclient": 3761,
      "ĠGroup": 3762,
      "merg": 3763,
      "ĠVal": 3764,
      "Ġaider": 3765,
      "Ġtermin": 3766,
      "ĠmÃ©c": 3767,
      "ĠAffairs": 3768,
      "Ġjustice": 3769,
      "ices": 3770,
      "ĠprotÃ©": 3771,
      "Ġdid": 3772,
      "ĠÃĥ": 3773,
      "Ġpast": 3774,
      "ested": 3775,
      "Alberta": 3776,
      "ĠAnn": 3777,
      "olutions": 3778,
      "Ġvolume": 3779,
      "ump": 3780,
      "Ġhausse": 3781,
      "Ġmontant": 3782,
      "OT": 3783,
      "ĠProt": 3784,
      "centage": 3785,
      "ĠCON": 3786,
      "ĠdÃ©l": 3787,
      "ĠcollectivitÃ©s": 3788,
      "estern": 3789,
      "ĠdÃ©b": 3790,
      "issent": 3791,
      "Ġfew": 3792,
      "uvres": 3793,
      "lation": 3794,
      "med": 3795,
      "Ġdeveloping": 3796,
      "ĠDescription": 3797,
      "idi": 3798,
      "Pr": 3799,
      "aisse": 3800,
      "Ġevery": 3801,
      "Ġcontact": 3802,
      "omp": 3803,
      "ĠRapport": 3804,
      "Ġradiodiff": 3805,
      "CP": 3806,
      "Ġfield": 3807,
      "Ġversion": 3808,
      "Ġdiv": 3809,
      "Ġfins": 3810,
      "ĠTerrit": 3811,
      "Ġtop": 3812,
      "Ġlike": 3813,
      "Ġagriculture": 3814,
      "ĠmodÃ¨le": 3815,
      "ness": 3816,
      "Ġprevious": 3817,
      "Ġgouvernements": 3818,
      "ĠRegion": 3819,
      "ĠÃ©d": 3820,
      "Ġindividual": 3821,
      "Ġcomponent": 3822,
      "Ġperman": 3823,
      "jour": 3824,
      "Ġland": 3825,
      "Ġoften": 3826,
      "nelles": 3827,
      "Ġï¬ģ": 3828,
      "ĠRo": 3829,
      "ĠtÃ©lÃ©vision": 3830,
      "Ġdiffusion": 3831,
      "ĠprÃ¨s": 3832,
      "Ġdiscri": 3833,
      "jets": 3834,
      "Ġdepartments": 3835,
      "pril": 3836,
      "ĠNations": 3837,
      "ourism": 3838,
      "tils": 3839,
      "Ġpublication": 3840,
      "TÃ©lÃ©": 3841,
      "ellectu": 3842,
      "ogue": 3843,
      "vez": 3844,
      "DP": 3845,
      "Ġconsidered": 3846,
      "examen": 3847,
      "Ġdirection": 3848,
      "ĠproblÃ¨mes": 3849,
      "Ġavantages": 3850,
      "Ġconsultations": 3851,
      "RQ": 3852,
      "ĠJo": 3853,
      "Am": 3854,
      "ending": 3855,
      "Ġnote": 3856,
      "ĠStrateg": 3857,
      "EMENT": 3858,
      "35": 3859,
      "ĠÃĢ": 3860,
      "aint": 3861,
      "rant": 3862,
      "Ġcalcul": 3863,
      "Ġapplications": 3864,
      "anis": 3865,
      "Table": 3866,
      "ĠEconomic": 3867,
      "enting": 3868,
      "Ġrespondents": 3869,
      "ĠclÃ©s": 3870,
      "ĠRel": 3871,
      "Ġincludes": 3872,
      "ĠSur": 3873,
      "ĠReview": 3874,
      "Ġmagazines": 3875,
      "TA": 3876,
      "Ġresponsibil": 3877,
      "45": 3878,
      "bliothÃ¨": 3879,
      "eria": 3880,
      "Ġright": 3881,
      "ttes": 3882,
      "Ġproviding": 3883,
      "Ġz": 3884,
      "Ġprob": 3885,
      "ĠmaniÃ¨re": 3886,
      "ancial": 3887,
      "Ġimplement": 3888,
      "ĠLab": 3889,
      "Ġentra": 3890,
      "Ġfournisse": 3891,
      "ior": 3892,
      "way": 3893,
      "613": 3894,
      "80": 3895,
      "exportation": 3896,
      "Ġeven": 3897,
      "Ġmed": 3898,
      "limin": 3899,
      "Ġmandat": 3900,
      "ĠÃ©tant": 3901,
      "Ġchac": 3902,
      "Ġadmissibles": 3903,
      "Or": 3904,
      "xte": 3905,
      "ĠHon": 3906,
      "2002": 3907,
      "ĠMarket": 3908,
      "ticles": 3909,
      "Toute": 3910,
      "Ġexports": 3911,
      "DQ": 3912,
      "ueill": 3913,
      "Ġsociety": 3914,
      "duced": 3915,
      "Ġreports": 3916,
      "Ġcover": 3917,
      "Ã©gard": 3918,
      "Ġassurer": 3919,
      "ĠPres": 3920,
      "inn": 3921,
      "Br": 3922,
      "ĠSci": 3923,
      "ĠprÃ©cÃ©d": 3924,
      "Ġste": 3925,
      "orporate": 3926,
      "riv": 3927,
      "Ġactive": 3928,
      "Ġax": 3929,
      "Ġeligible": 3930,
      "):": 3931,
      "Ġread": 3932,
      "Res": 3933,
      "Ġhowever": 3934,
      "HQ": 3935,
      "Ġcontri": 3936,
      "Ġstake": 3937,
      "ma": 3938,
      "ico": 3939,
      "ĠPour": 3940,
      "iles": 3941,
      "Ġill": 3942,
      "mploy": 3943,
      "ĠEducation": 3944,
      "iÃ¨": 3945,
      "Ġlikely": 3946,
      "mi": 3947,
      "Ġnoted": 3948,
      "Ġsuff": 3949,
      "Ġwithout": 3950,
      "Ġsuivants": 3951,
      "Ã©chelle": 3952,
      "ennent": 3953,
      "tences": 3954,
      "Ġentente": 3955,
      "orable": 3956,
      "Ġtarget": 3957,
      "ĠCommunity": 3958,
      "tise": 3959,
      "Ġsau": 3960,
      "acts": 3961,
      "ĠFra": 3962,
      "Ġagreements": 3963,
      "Ġaide": 3964,
      "ĠCS": 3965,
      "mest": 3966,
      "Ġleaders": 3967,
      "Ġacces": 3968,
      "ĠsuccÃ¨s": 3969,
      "eli": 3970,
      "onse": 3971,
      "Ã»t": 3972,
      "actÃ©": 3973,
      "rÃ©es": 3974,
      "vier": 3975,
      "Ġfix": 3976,
      "Ġrates": 3977,
      "comp": 3978,
      "wards": 3979,
      "Ġinvolved": 3980,
      "ests": 3981,
      "Ġmethod": 3982,
      "ĠsupplÃ©": 3983,
      "ĠÃ©conomiques": 3984,
      "Ġencourage": 3985,
      "quelle": 3986,
      "Comme": 3987,
      "Ġaspects": 3988,
      "Ġbal": 3989,
      "Ġnormes": 3990,
      "Ġyouth": 3991,
      "ĠPl": 3992,
      "SO": 3993,
      "Ils": 3994,
      "Ã©tablissement": 3995,
      "ĠAgri": 3996,
      "outes": 3997,
      "Ġviolence": 3998,
      "Ġlaquelle": 3999,
      "agriculture": 4000,
      "Ġserait": 4001,
      "Ġjuin": 4002,
      "onom": 4003,
      "Ġfiscal": 4004,
      "ĠJune": 4005,
      "ĠaugmentÃ©": 4006,
      "Ġefficace": 4007,
      "ĠstratÃ©gie": 4008,
      "cs": 4009,
      "ĠstratÃ©gique": 4010,
      "Ġexperience": 4011,
      "Ġconsist": 4012,
      "illeurs": 4013,
      "Ġclai": 4014,
      "ĠZ": 4015,
      "Ġtrimest": 4016,
      "esti": 4017,
      "Ġdown": 4018,
      "Ġenregist": 4019,
      "ĠStatistics": 4020,
      "Food": 4021,
      "ĠSociety": 4022,
      "Ġparticulier": 4023,
      "go": 4024,
      "Ġface": 4025,
      "Association": 4026,
      "Ġpourraient": 4027,
      "cept": 4028,
      "Ġfinanciers": 4029,
      "idÃ©": 4030,
      "ĠrÃ©pondre": 4031,
      "Ġagainst": 4032,
      "BC": 4033,
      "ĠConvention": 4034,
      "tient": 4035,
      "Ġrelativement": 4036,
      "DI": 4037,
      "la": 4038,
      "areness": 4039,
      "ĠAsi": 4040,
      "lÃ¨tes": 4041,
      "Ġsuper": 4042,
      "ĠreprÃ©sentants": 4043,
      "agit": 4044,
      "Ġfacteurs": 4045,
      "Ġfais": 4046,
      "appli": 4047,
      "ibility": 4048,
      "ĠSection": 4049,
      "ĠcoopÃ©ra": 4050,
      "Ġexpend": 4051,
      "brary": 4052,
      "Ġtelevision": 4053,
      "ocation": 4054,
      "ek": 4055,
      "eptem": 4056,
      "Ġliste": 4057,
      "ros": 4058,
      "chÃ©": 4059,
      "ĠÃ©n": 4060,
      "Ġpurch": 4061,
      "ening": 4062,
      "Ġmondiale": 4063,
      "Ġpat": 4064,
      "Ġunique": 4065,
      "ĠEnviron": 4066,
      "accord": 4067,
      "oper": 4068,
      "Some": 4069,
      "ĠRad": 4070,
      "inves": 4071,
      "Elle": 4072,
      "Ġorganisations": 4073,
      "Ġlower": 4074,
      "Ġdiverses": 4075,
      "Ġcourt": 4076,
      "Ġnecessary": 4077,
      "atural": 4078,
      "atric": 4079,
      "Ġadj": 4080,
      "esse": 4081,
      "Ġprogramming": 4082,
      "Ġheritage": 4083,
      "ĠliÃ©s": 4084,
      "tariat": 4085,
      "Ġfaible": 4086,
      "Ġtechniques": 4087,
      "ĠcompÃ©tences": 4088,
      "ret": 4089,
      "duce": 4090,
      "Ġseed": 4091,
      "rador": 4092,
      "Ã©rience": 4093,
      "Ġattra": 4094,
      "Ġdeal": 4095,
      "rÃ¨s": 4096,
      "Ġable": 4097,
      "Ġattend": 4098,
      "Ġbecome": 4099,
      "ival": 4100,
      "Ġforme": 4101,
      "cal": 4102,
      "Ġcyc": 4103,
      "casting": 4104,
      "atique": 4105,
      "ideo": 4106,
      "77": 4107,
      "Ġmodel": 4108,
      "Ġear": 4109,
      "Ġpaiements": 4110,
      "ISTI": 4111,
      "Ġreported": 4112,
      "uts": 4113,
      "Ġbook": 4114,
      "Ġgovernments": 4115,
      "ĠDU": 4116,
      "Ġdeliver": 4117,
      "Ġlorsque": 4118,
      "Ġinnov": 4119,
      "vous": 4120,
      "Ġrecip": 4121,
      "truments": 4122,
      "ores": 4123,
      "Ġeduc": 4124,
      "ĠparticuliÃ¨rement": 4125,
      "objet": 4126,
      "Ġuniversities": 4127,
      "aborer": 4128,
      "ĠPAR": 4129,
      "Ġemployees": 4130,
      "ĠX": 4131,
      "Ġopportunity": 4132,
      "quel": 4133,
      "ĠHuman": 4134,
      "Ġchangements": 4135,
      "ĠSector": 4136,
      "ĠCorporation": 4137,
      "Ġapply": 4138,
      "ĠSupport": 4139,
      "lex": 4140,
      "Ġresponsible": 4141,
      "Ġailleurs": 4142,
      "Ġconcerne": 4143,
      "ectors": 4144,
      "Ġstrategic": 4145,
      "With": 4146,
      "Ġassist": 4147,
      "Ġtoujours": 4148,
      "Cer": 4149,
      "IB": 4150,
      "lease": 4151,
      "yp": 4152,
      "Ġappear": 4153,
      "While": 4154,
      "Ġsitu": 4155,
      "Ġmagazine": 4156,
      "ember": 4157,
      "ĠamÃ©liorer": 4158,
      "ĠreÃ§": 4159,
      "ĠAf": 4160,
      "Ġache": 4161,
      "Ġuti": 4162,
      "@@@@": 4163,
      "ĠÃ©lectronique": 4164,
      "WL": 4165,
      "year": 4166,
      "Ġstill": 4167,
      "Ġprovinciaux": 4168,
      "vest": 4169,
      "ukon": 4170,
      "Ġtonnes": 4171,
      "Ġappar": 4172,
      "liance": 4173,
      "analyse": 4174,
      "Ġcharg": 4175,
      "td": 4176,
      "Ġdernier": 4177,
      "Ġprogress": 4178,
      "Ġgener": 4179,
      "cidence": 4180,
      "ended": 4181,
      "Ġheld": 4182,
      "49": 4183,
      "iennent": 4184,
      "Ġgrandes": 4185,
      "ĠdeuxiÃ¨me": 4186,
      "Ġmaintenant": 4187,
      "Ġconj": 4188,
      "Ġbelie": 4189,
      "ansion": 4190,
      "cembre": 4191,
      "Ġcause": 4192,
      "Ġnext": 4193,
      "PA": 4194,
      "augment": 4195,
      "tie": 4196,
      "taur": 4197,
      "Ġguid": 4198,
      "Ġevent": 4199,
      "ĠÃ©trangers": 4200,
      "ples": 4201,
      "ĠindÃ©": 4202,
      "ĠcoÃ»t": 4203,
      "ĠIndi": 4204,
      "Ġmoyens": 4205,
      "Ġsubmit": 4206,
      "Ġcomment": 4207,
      "ĠLA": 4208,
      "illet": 4209,
      "Ġtrouver": 4210,
      "Ġexpl": 4211,
      "Ġsensibil": 4212,
      "Ġsubject": 4213,
      "Ġpositive": 4214,
      "Ġ1994": 4215,
      "Ġintro": 4216,
      "________________________________": 4217,
      "ote": 4218,
      "ane": 4219,
      "eptember": 4220,
      "ĠAU": 4221,
      "Ġinternationales": 4222,
      "fier": 4223,
      "Ġfabric": 4224,
      "prÃ©": 4225,
      "Ġmanag": 4226,
      "abl": 4227,
      "ĠBrunswick": 4228,
      "Ġdiscussion": 4229,
      "Ġesp": 4230,
      "ommunications": 4231,
      "ĠINC": 4232,
      "Ġlivres": 4233,
      "Ġsuppli": 4234,
      "ĠprocÃ©d": 4235,
      "umes": 4236,
      "istered": 4237,
      "65": 4238,
      "ĠAmerican": 4239,
      "Ġobs": 4240,
      "ĠBranch": 4241,
      "Ġcollection": 4242,
      "Ġclear": 4243,
      "HU": 4244,
      "comes": 4245,
      "Ġfre": 4246,
      "ĠCulture": 4247,
      "ecu": 4248,
      "tout": 4249,
      "ĠSite": 4250,
      "Ġaccount": 4251,
      "Ġunderta": 4252,
      "tiveness": 4253,
      "Ġsex": 4254,
      "ified": 4255,
      "Ġfacilit": 4256,
      "tition": 4257,
      "Ġimpos": 4258,
      "minist": 4259,
      "Ġcopyright": 4260,
      "ĠblÃ©": 4261,
      "67": 4262,
      "Ġprep": 4263,
      "Ġimportants": 4264,
      "Toutefois": 4265,
      "ĠintÃ©ress": 4266,
      "Ġscientif": 4267,
      "naire": 4268,
      "Ġaudi": 4269,
      "ĠNouvelle": 4270,
      "47": 4271,
      "2000": 4272,
      "ĠcritÃ¨res": 4273,
      "food": 4274,
      "Ġ%)": 4275,
      "thers": 4276,
      "Ġrevenues": 4277,
      "ĠpossibilitÃ©s": 4278,
      "Ġsubst": 4279,
      "ĠEqu": 4280,
      "tembre": 4281,
      "ĠTravel": 4282,
      "Ġ33": 4283,
      "OP": 4284,
      "Ġsoul": 4285,
      "euillez": 4286,
      "ĠcÃ©rÃ©": 4287,
      "ĠApril": 4288,
      "Ġdecision": 4289,
      "lectronic": 4290,
      "Ġback": 4291,
      "CNRC": 4292,
      "ĠCANADA": 4293,
      "Ġcommuni": 4294,
      "Ġshort": 4295,
      "Ġdetermin": 4296,
      "ova": 4297,
      "venue": 4298,
      "bun": 4299,
      "termine": 4300,
      "ĠSys": 4301,
      "rÃªts": 4302,
      "Ġrapid": 4303,
      "ĠÃ©diteurs": 4304,
      "Ġbon": 4305,
      "ĠfÃ©dÃ©rale": 4306,
      "bjec": 4307,
      "Ġlimited": 4308,
      "elines": 4309,
      "Ġcases": 4310,
      "Ġbiolog": 4311,
      "Ġliens": 4312,
      "Ġreporting": 4313,
      "Ġenvironmental": 4314,
      "Ġanother": 4315,
      "ĠInitiative": 4316,
      "Ġexisting": 4317,
      "elling": 4318,
      "Ġproch": 4319,
      "Ġoccas": 4320,
      "nÃ©s": 4321,
      "rid": 4322,
      "ĠHonourable": 4323,
      "ĠJapan": 4324,
      "cellence": 4325,
      "Ãīc": 4326,
      "Ġlivra": 4327,
      "Ġstakeholders": 4328,
      "Ġnationaux": 4329,
      "Ġretail": 4330,
      "ĠPrograms": 4331,
      "Ġ500": 4332,
      "itizens": 4333,
      "Ġ1990": 4334,
      "uly": 4335,
      "Ġexchange": 4336,
      "Ġstandards": 4337,
      "assurance": 4338,
      "Ġprofit": 4339,
      "2001": 4340,
      "liament": 4341,
      "enregistrement": 4342,
      "ĠPress": 4343,
      "Ġmanufact": 4344,
      "eter": 4345,
      "Ġobjective": 4346,
      "ĠTechnology": 4347,
      "tÃ©es": 4348,
      "Ġplein": 4349,
      "85": 4350,
      "Ġdiscrimination": 4351,
      "Ġcateg": 4352,
      "Ġcoordination": 4353,
      "ĠSud": 4354,
      "Ġ49": 4355,
      "ĠdÃ©cision": 4356,
      "uyer": 4357,
      "ĠJohn": 4358,
      "exploitation": 4359,
      "Ġsond": 4360,
      "ither": 4361,
      "Ã©cution": 4362,
      "Ġessenti": 4363,
      "Tel": 4364,
      "ked": 4365,
      "Ġracis": 4366,
      "occup": 4367,
      "Ġmilliards": 4368,
      "Brunswick": 4369,
      "Ġinstall": 4370,
      "ĠTHE": 4371,
      "ĠProduction": 4372,
      "Ġrencont": 4373,
      "Ġuniversity": 4374,
      "Ġlife": 4375,
      "Ġstrategy": 4376,
      "Ġleast": 4377,
      "ĠMuse": 4378,
      "Ġproperty": 4379,
      "2007": 4380,
      "Cependant": 4381,
      "Ġparticularly": 4382,
      "Ġenj": 4383,
      "Ġguide": 4384,
      "ĠÃ©levÃ©": 4385,
      "Ġinternationaux": 4386,
      "ĠCop": 4387,
      "Ġfeed": 4388,
      "ĠCommerce": 4389,
      ",\"": 4390,
      "Ġsimilar": 4391,
      "Ġfall": 4392,
      "otes": 4393,
      "Ġconsumer": 4394,
      "ienne": 4395,
      "Ġ45": 4396,
      "Ġmaking": 4397,
      "aving": 4398,
      "Ġaffaires": 4399,
      "Ġvos": 4400,
      "Ġcomplex": 4401,
      "Ġdeb": 4402,
      "Ġhumaines": 4403,
      "ĠResources": 4404,
      "Ġ99": 4405,
      "we": 4406,
      "iries": 4407,
      "Ġpromouvoir": 4408,
      "Ġdomaines": 4409,
      "Ġphot": 4410,
      "iche": 4411,
      "Ġseptembre": 4412,
      "Program": 4413,
      "ĠpropriÃ©tÃ©": 4414,
      "imm": 4415,
      "ĠdiffÃ©rents": 4416,
      "Fr": 4417,
      "ĠspÃ©ci": 4418,
      "...": 4419,
      "Ġcommerciales": 4420,
      "umers": 4421,
      "phe": 4422,
      "ĠNouveau": 4423,
      "ĠFrancophonie": 4424,
      "veloppement": 4425,
      "ĠSte": 4426,
      "olid": 4427,
      "Ã®t": 4428,
      "ĠScoti": 4429,
      "ola": 4430,
      "Ġlegal": 4431,
      "Ġthird": 4432,
      "ĠConsult": 4433,
      "Ġposs": 4434,
      "SE": 4435,
      "Ġtels": 4436,
      "Ġlut": 4437,
      "amb": 4438,
      "Ġtenu": 4439,
      "AFC": 4440,
      "Ġadap": 4441,
      "Ġpermettre": 4442,
      "Ġrelevant": 4443,
      "ops": 4444,
      "utri": 4445,
      "utÃ´t": 4446,
      "anvier": 4447,
      "Ġbeh": 4448,
      "Ġminoritaire": 4449,
      "Ġexploit": 4450,
      "Ġgreat": 4451,
      "ĠET": 4452,
      "ĠreprÃ©sente": 4453,
      "Ġ=": 4454,
      "Ġchamp": 4455,
      "Ġfavoriser": 4456,
      "Ġterm": 4457,
      "Je": 4458,
      "Ġalimentaires": 4459,
      "of": 4460,
      "CA": 4461,
      "vertis": 4462,
      "ĠTourism": 4463,
      "Ġcompared": 4464,
      "ĠBl": 4465,
      "Ġni": 4466,
      "ĠMt": 4467,
      "Ġ75": 4468,
      "IA": 4469,
      "Ġprovis": 4470,
      "itions": 4471,
      "Ġdistribut": 4472,
      "Bien": 4473,
      "omme": 4474,
      "Ġmech": 4475,
      "atiques": 4476,
      "Ġmanif": 4477,
      "Ġconfir": 4478,
      "Ġquelques": 4479,
      "ĠdÃ©cembre": 4480,
      "Ġavril": 4481,
      "ĠmÃ©d": 4482,
      "Ġautom": 4483,
      "ĠSociÃ©tÃ©": 4484,
      "ira": 4485,
      "Ġplanning": 4486,
      "rain": 4487,
      "Ġpayments": 4488,
      "fr": 4489,
      "pection": 4490,
      "ĠJeux": 4491,
      "Ġregions": 4492,
      "Ġadministr": 4493,
      "Ġchildren": 4494,
      "Ġjud": 4495,
      "let": 4496,
      "visionnement": 4497,
      "ĠdÃ©but": 4498,
      "Ġresponsabil": 4499,
      "ĠprivÃ©": 4500,
      "ĠprioritÃ©s": 4501,
      "Ġobligations": 4502,
      "innovation": 4503,
      "Ġabove": 4504,
      "Ã©nements": 4505,
      "taining": 4506,
      "Ġsembl": 4507,
      "ĠGuide": 4508,
      "Ġplanification": 4509,
      "exercice": 4510,
      "ĠDecember": 4511,
      "Ġeux": 4512,
      "Ġrent": 4513,
      "ERS": 4514,
      "Ġtoget": 4515,
      "ING": 4516,
      "Ġtogether": 4517,
      "temp": 4518,
      "Ġdeta": 4519,
      "Ġunderstanding": 4520,
      "âĢ¦âĢ¦âĢ¦âĢ¦": 4521,
      "offre": 4522,
      "Ġhold": 4523,
      "ĠFilm": 4524,
      "ĠLtd": 4525,
      "tissements": 4526,
      "ipeg": 4527,
      "innipeg": 4528,
      "Ġcoord": 4529,
      "Ġchois": 4530,
      "Ġgaranti": 4531,
      "Ġcurrently": 4532,
      "Ġchap": 4533,
      "Ġbenefit": 4534,
      "ones": 4535,
      "Ġcontexte": 4536,
      "Ġrempl": 4537,
      "ĠPe": 4538,
      "eront": 4539,
      "iÃ©s": 4540,
      "Ġdecre": 4541,
      "mark": 4542,
      "Ġlargest": 4543,
      "oth": 4544,
      "agr": 4545,
      "ands": 4546,
      "itation": 4547,
      "ela": 4548,
      "ĠvidÃ©": 4549,
      "Ġconcurrence": 4550,
      "Ġdepartment": 4551,
      "ĠAtlan": 4552,
      "ĠrÃ©duire": 4553,
      "Ġathle": 4554,
      "Ġcredit": 4555,
      "Ġcomprend": 4556,
      "ĠbÃ©nÃ©ficiaires": 4557,
      "Ġseconde": 4558,
      "Ġdirectement": 4559,
      "Ġconcentr": 4560,
      "ĠIl": 4561,
      "Ġjuridi": 4562,
      "Ġmulticulturalisme": 4563,
      "Ġtraitement": 4564,
      "Ġcriteria": 4565,
      "Ġri": 4566,
      "Ġimmigrants": 4567,
      "endi": 4568,
      "ched": 4569,
      "tacles": 4570,
      "ients": 4571,
      "Ġchoix": 4572,
      "MP": 4573,
      "GH": 4574,
      "ĠMay": 4575,
      "ĠScotia": 4576,
      "ering": 4577,
      "isÃ©s": 4578,
      "Ġchez": 4579,
      "vey": 4580,
      "ximately": 4581,
      "Ġcertif": 4582,
      "Ġstru": 4583,
      "ĠDivers": 4584,
      "ĠDES": 4585,
      "Internet": 4586,
      "Plus": 4587,
      "Ġ!": 4588,
      "Ġpoursu": 4589,
      "Ġporte": 4590,
      "ĠrÃ©per": 4591,
      "Ġlinguistique": 4592,
      "hui": 4593,
      "Ġmoder": 4594,
      "NE": 4595,
      "urent": 4596,
      "ĠrÃ©par": 4597,
      "Ġpartir": 4598,
      "Ġfirms": 4599,
      "Total": 4600,
      "Ġcitoy": 4601,
      "ĠST": 4602,
      "Ġmonths": 4603,
      "ĠMag": 4604,
      "ĠplutÃ´t": 4605,
      "Ġsurtout": 4606,
      "Ġsuivantes": 4607,
      "ĠAND": 4608,
      "ĠnÃ©cessaires": 4609,
      "ĠSy": 4610,
      "Ġaim": 4611,
      "ĠSeptember": 4612,
      "ze": 4613,
      "Ġurb": 4614,
      "Ġreturn": 4615,
      "anced": 4616,
      "jourd": 4617,
      "Ġ80": 4618,
      "Ġpurpose": 4619,
      "Ġgrowing": 4620,
      "Ġart": 4621,
      "Ġawareness": 4622,
      "Ġvise": 4623,
      "Ġsaid": 4624,
      "ĠTele": 4625,
      "ĠcatÃ©gorie": 4626,
      "Ġappel": 4627,
      "dom": 4628,
      "auv": 4629,
      "occas": 4630,
      "ĠYukon": 4631,
      "Ġfig": 4632,
      "Ġmarque": 4633,
      "Me": 4634,
      "Ġvig": 4635,
      "Ġorigin": 4636,
      "ĠProvince": 4637,
      "95": 4638,
      "tir": 4639,
      "Ġpublics": 4640,
      "ĠMarke": 4641,
      "Ġquarter": 4642,
      "Ġposte": 4643,
      "acter": 4644,
      "Ġsuccessful": 4645,
      "ĠAll": 4646,
      "ĠFore": 4647,
      "assification": 4648,
      "ĠCanadiennes": 4649,
      "inion": 4650,
      "gÃ©s": 4651,
      "ĠRadio": 4652,
      "inks": 4653,
      "Ġjanvier": 4654,
      "ignes": 4655,
      "Ġmaterials": 4656,
      "Ġsectors": 4657,
      "organisme": 4658,
      "intention": 4659,
      "ĠRights": 4660,
      "ĠFarm": 4661,
      "OD": 4662,
      "ĠNews": 4663,
      "ĠProject": 4664,
      "uels": 4665,
      "Ġexhib": 4666,
      "Ins": 4667,
      "Ġcarri": 4668,
      "Ġsolutions": 4669,
      "New": 4670,
      "ĠWomen": 4671,
      "Imp": 4672,
      "UniversitÃ©": 4673,
      "mise": 4674,
      "rup": 4675,
      "Ã©tude": 4676,
      "rentiss": 4677,
      "actions": 4678,
      "ĠIndustri": 4679,
      "ĠGer": 4680,
      "Ã©rable": 4681,
      "OU": 4682,
      "ĠSouth": 4683,
      "ĠrÃ©d": 4684,
      "Ġcho": 4685,
      "Ġpouv": 4686,
      "rang": 4687,
      "ori": 4688,
      "Ġaugmentation": 4689,
      "df": 4690,
      "Ġcustom": 4691,
      "ctober": 4692,
      "Ġsubventions": 4693,
      "poses": 4694,
      "ĠStat": 4695,
      "Ġrelig": 4696,
      "quels": 4697,
      "Ġforce": 4698,
      "Ġinnovation": 4699,
      "MA": 4700,
      "ĠMc": 4701,
      "dess": 4702,
      "ophones": 4703,
      "Ġterres": 4704,
      "ĠliÃ©es": 4705,
      "Ġlicence": 4706,
      "clud": 4707,
      "ĠRÃ©": 4708,
      "Ġgenerally": 4709,
      "Ġpubliques": 4710,
      "ple": 4711,
      "aprÃ¨s": 4712,
      "ĠprÃ©senter": 4713,
      "orn": 4714,
      "Ġprofessional": 4715,
      "atoire": 4716,
      "Ġvir": 4717,
      "ĠÃ©tude": 4718,
      "Ġextent": 4719,
      "ynam": 4720,
      "dule": 4721,
      "ĠThis": 4722,
      "Ġchallenges": 4723,
      "aff": 4724,
      "Ġdirectly": 4725,
      "ĠdÃ©cisions": 4726,
      "Ġvolun": 4727,
      "ĠInstitute": 4728,
      "Ġreceive": 4729,
      "Ġlivraison": 4730,
      "All": 4731,
      "ready": 4732,
      "Ġdescrib": 4733,
      "osse": 4734,
      "Ġdestination": 4735,
      "ĠJanuary": 4736,
      "ued": 4737,
      "ropÃ©": 4738,
      "Ġ--": 4739,
      "ĠFirst": 4740,
      "Ġpayment": 4741,
      "Ġchiff": 4742,
      "ĠathlÃ¨tes": 4743,
      "Ġday": 4744,
      "atic": 4745,
      "Ġconsac": 4746,
      "Ġemployment": 4747,
      "Ġregul": 4748,
      "chives": 4749,
      "ĠdÃ©cou": 4750,
      "Ġbaisse": 4751,
      "Ġred": 4752,
      "pre": 4753,
      "Ġmai": 4754,
      "ĠgÃ©nÃ©ralement": 4755,
      "Ġshe": 4756,
      "eur": 4757,
      "Ġdiscuss": 4758,
      "Ġearly": 4759,
      "âĢĳ": 4760,
      "ipl": 4761,
      "Ġexiste": 4762,
      "tivity": 4763,
      "ĠprÃ©voit": 4764,
      "ĠdÃ©sig": 4765,
      "Ġparticiper": 4766,
      "Ġstocks": 4767,
      "ĠRÃ©s": 4768,
      "Ġproduced": 4769,
      "Ġskills": 4770,
      "oph": 4771,
      "dire": 4772,
      "Ġdurant": 4773,
      "nership": 4774,
      "aul": 4775,
      "Ġniveaux": 4776,
      "Ġcherche": 4777,
      "Ġindividuals": 4778,
      "ĠIsland": 4779,
      "Ã©rations": 4780,
      "Ġequipment": 4781,
      "rentissage": 4782,
      "ulaire": 4783,
      "Ġtaken": 4784,
      "Ġfut": 4785,
      "Ġreli": 4786,
      "ĠChar": 4787,
      "Ġreason": 4788,
      "ĠcinÃ©m": 4789,
      "Ġmajority": 4790,
      "Ġcondition": 4791,
      "Ġbelow": 4792,
      "origine": 4793,
      "uer": 4794,
      "gg": 4795,
      "ansi": 4796,
      "ĠPDF": 4797,
      "Ġdigital": 4798,
      "Ġmonitor": 4799,
      "Ġradiodiffusion": 4800,
      "Ġfruits": 4801,
      "Ġfunded": 4802,
      "ash": 4803,
      "What": 4804,
      "Ġintellectu": 4805,
      "ĠbibliothÃ¨": 4806,
      "He": 4807,
      "Ġdollar": 4808,
      "gary": 4809,
      "Ġforte": 4810,
      "Ġidentify": 4811,
      "ĠBar": 4812,
      "bert": 4813,
      "isÃ©": 4814,
      "ĠAir": 4815,
      "Ġviv": 4816,
      "ave": 4817,
      "onstr": 4818,
      "Ġ37": 4819,
      "DA": 4820,
      "ĠSource": 4821,
      "urÃ©e": 4822,
      "cement": 4823,
      "ĠSum": 4824,
      "tenus": 4825,
      "Ġdispositions": 4826,
      "ĠNetwork": 4827,
      "ĠcrÃ©er": 4828,
      "ĠÃ©valuation": 4829,
      "Ġcommerciaux": 4830,
      "orme": 4831,
      "ociations": 4832,
      "Ġjours": 4833,
      "application": 4834,
      "Ġfactors": 4835,
      "Ġstudies": 4836,
      "ĠrÃ©v": 4837,
      "Ã©vrier": 4838,
      "LA": 4839,
      "issant": 4840,
      "Ġgrands": 4841,
      "Ac": 4842,
      "Ġactuellement": 4843,
      "Ġoil": 4844,
      "ĠcomitÃ©": 4845,
      "aud": 4846,
      "Ġdisponibles": 4847,
      "Ġaround": 4848,
      "Cons": 4849,
      "Ġexpenses": 4850,
      "Ġpurposes": 4851,
      "exÃ©cution": 4852,
      "48": 4853,
      "Ġcampagne": 4854,
      "going": 4855,
      "Ġability": 4856,
      "Tra": 4857,
      "Ġdetermine": 4858,
      "isant": 4859,
      "Ġpaiement": 4860,
      "Ġconducted": 4861,
      "Ġpaid": 4862,
      "face": 4863,
      "ii": 4864,
      "tability": 4865,
      "Ġcreate": 4866,
      "ecutive": 4867,
      "Ġindicated": 4868,
      "Ġconseil": 4869,
      "Ġachieve": 4870,
      "63": 4871,
      "hic": 4872,
      "Ġcorre": 4873,
      "Ġord": 4874,
      "Ġconseils": 4875,
      "mn": 4876,
      "Ġprincipales": 4877,
      "ĠAutochtones": 4878,
      "ĠcaractÃ©": 4879,
      "Ġspe": 4880,
      "Ġgrains": 4881,
      "Ġpu": 4882,
      "Ġtrimestre": 4883,
      "alys": 4884,
      "ĠrÃ©serv": 4885,
      "impÃ´t": 4886,
      "Ġregarding": 4887,
      "ĠÃ©lÃ¨": 4888,
      "Ġtermes": 4889,
      "ĠamÃ©lior": 4890,
      "LQ": 4891,
      "Ġprestation": 4892,
      "Ġorganisme": 4893,
      "ĠPublications": 4894,
      "Ġdiscussions": 4895,
      "Ġoutside": 4896,
      "ICIST": 4897,
      "Ġparmi": 4898,
      "EP": 4899,
      "anci": 4900,
      "ĠMulticultural": 4901,
      "etary": 4902,
      "Ġyoung": 4903,
      "tle": 4904,
      "ope": 4905,
      "Ġplant": 4906,
      "atively": 4907,
      "Ġimportations": 4908,
      "Ġcompagn": 4909,
      "ĠNova": 4910,
      "by": 4911,
      "ding": 4912,
      "ĠmajoritÃ©": 4913,
      "occasion": 4914,
      "Ġquant": 4915,
      "Ġfair": 4916,
      "Ġfournisseurs": 4917,
      "active": 4918,
      "ĠBi": 4919,
      "Ġpriorities": 4920,
      "Ġassociated": 4921,
      "ĠOp": 4922,
      "Ġformat": 4923,
      "unav": 4924,
      "ĠDis": 4925,
      "istribution": 4926,
      "Ġexpenditures": 4927,
      "ĠcrÃ©dit": 4928,
      "html": 4929,
      "ĠsÃ©rie": 4930,
      "ulaires": 4931,
      "aissance": 4932,
      "activitÃ©s": 4933,
      "Ġeffets": 4934,
      "Ġ70": 4935,
      "Ġrefer": 4936,
      "Ġcommercialisation": 4937,
      "bo": 4938,
      "Ġreach": 4939,
      "Ġrecettes": 4940,
      "Ġvaleurs": 4941,
      "ĠPoliti": 4942,
      "hÃ©": 4943,
      "Ġeffect": 4944,
      "ĠYear": 4945,
      "Agriculture": 4946,
      "ĠdÃ©s": 4947,
      "ueur": 4948,
      "Ġexpress": 4949,
      "Ġalready": 4950,
      "ĠrÃ©gionaux": 4951,
      "ĠHar": 4952,
      "bruary": 4953,
      "atab": 4954,
      "Ġrecommandations": 4955,
      "Ġrestric": 4956,
      "Ġaccr": 4957,
      "ĠrÃ©gime": 4958,
      "Ġtouch": 4959,
      "Ġenseign": 4960,
      "Ġtools": 4961,
      "ĠÃ©vent": 4962,
      "Ġstruct": 4963,
      "Ġcat": 4964,
      "ĠPrÃ©": 4965,
      "Ġdirecteur": 4966,
      "estivals": 4967,
      "ĠEuropean": 4968,
      "Fax": 4969,
      "ĠPrem": 4970,
      "Ġproducer": 4971,
      "Ġgens": 4972,
      "angl": 4973,
      "Ġdesigned": 4974,
      "SC": 4975,
      "Ġlorsqu": 4976,
      "Ġbureau": 4977,
      "ĠstratÃ©gies": 4978,
      "cts": 4979,
      "ares": 4980,
      "activitÃ©": 4981,
      "vets": 4982,
      "Ġdescription": 4983,
      "ĠLeg": 4984,
      "ĠdÃ©tail": 4985,
      "Ġdossiers": 4986,
      "Ġparents": 4987,
      "objec": 4988,
      "cide": 4989,
      "aste": 4990,
      "Ġcr": 4991,
      "isent": 4992,
      "Ġfamily": 4993,
      "ĠthÃ©": 4994,
      "ĠCO": 4995,
      "Ġofferts": 4996,
      "Ġdescrip": 4997,
      "Ġgoods": 4998,
      "Ġannuel": 4999,
      "ls": 5000,
      "ĠTo": 5001,
      "andis": 5002,
      "ï¬Ĥation": 5003,
      "PC": 5004,
      "Ġvoir": 5005,
      "Ġpartenariats": 5006,
      "Ġconsumers": 5007,
      "titude": 5008,
      "Ġmember": 5009,
      "Man": 5010,
      "ĠDeli": 5011,
      "rown": 5012,
      "Ġprofessionnels": 5013,
      "ĠMeas": 5014,
      "Ã©tudes": 5015,
      "Ġcreated": 5016,
      ".:": 5017,
      "Ġtal": 5018,
      "Ġtableau": 5019,
      "Ġopen": 5020,
      "Ġavaient": 5021,
      "ĠTri": 5022,
      "aps": 5023,
      "Ġsciences": 5024,
      "Ġlois": 5025,
      "Ġrepro": 5026,
      "come": 5027,
      "ĠAffaires": 5028,
      "Ġagri": 5029,
      "ĠNumÃ©ro": 5030,
      "Ġdocumentation": 5031,
      "Ġtravaux": 5032,
      "unavut": 5033,
      "Ġpress": 5034,
      "ÃīS": 5035,
      "intÃ©gr": 5036,
      "Ġpetites": 5037,
      "ĠÃ©lÃ¨ves": 5038,
      "Ġparce": 5039,
      "Ġer": 5040,
      "Ġmer": 5041,
      "Ã©tail": 5042,
      "Ġsorte": 5043,
      "ĠOver": 5044,
      "Ġinfrastructure": 5045,
      "ĠLaw": 5046,
      "Ġmight": 5047,
      "Ġcontract": 5048,
      "ĠEN": 5049,
      "ĠbÃ©nÃ©v": 5050,
      "Ġreduce": 5051,
      "Ġ55": 5052,
      "Ġdeg": 5053,
      "found": 5054,
      "Ottawa": 5055,
      "ron": 5056,
      "iver": 5057,
      "ctobre": 5058,
      "ah": 5059,
      "ansition": 5060,
      "ik": 5061,
      "ĠPrince": 5062,
      "ĠeuropÃ©": 5063,
      "Mar": 5064,
      "erver": 5065,
      "ingle": 5066,
      "Ġassessment": 5067,
      "ĠrÃ©gul": 5068,
      "ulting": 5069,
      "Ġarticles": 5070,
      "Ġconnaissances": 5071,
      "tine": 5072,
      "Ġconstruction": 5073,
      "ĠTre": 5074,
      "Ġsugges": 5075,
      "ĠVis": 5076,
      "ET": 5077,
      "most": 5078,
      "Ġpris": 5079,
      "39": 5080,
      "Ġcomprendre": 5081,
      "Ġnegoti": 5082,
      "ĠIt": 5083,
      "Ġconstitue": 5084,
      "truct": 5085,
      "Ġterritorial": 5086,
      "umption": 5087,
      "Ġprovenant": 5088,
      "\".": 5089,
      "Ġexerc": 5090,
      "Ġparagraphe": 5091,
      "Ġdipl": 5092,
      "RU": 5093,
      "Ġsuivant": 5094,
      "ĠDiv": 5095,
      "Ġgradu": 5096,
      "ination": 5097,
      "ology": 5098,
      "vembre": 5099,
      "ĠLanguage": 5100,
      "Ġrepresentatives": 5101,
      "aring": 5102,
      "pecially": 5103,
      "Ġoutcomes": 5104,
      "Ġeither": 5105,
      "70": 5106,
      "ĠAction": 5107,
      "Ġhome": 5108,
      "ically": 5109,
      "One": 5110,
      "Ġrou": 5111,
      "Ġnombreuses": 5112,
      "andes": 5113,
      "ĠPers": 5114,
      "sibilitÃ©": 5115,
      "Ġoffrir": 5116,
      "liz": 5117,
      "rouv": 5118,
      "Av": 5119,
      "Ġclos": 5120,
      "46": 5121,
      "Ġanalyse": 5122,
      "ĠresponsabilitÃ©": 5123,
      "ĠCD": 5124,
      "Ġstrategies": 5125,
      "asp": 5126,
      "Ġtransformation": 5127,
      "investissement": 5128,
      "PF": 5129,
      "ĠMedia": 5130,
      "Ġactions": 5131,
      "Ġsustain": 5132,
      "ergy": 5133,
      "Ġpublishers": 5134,
      "rique": 5135,
      "ĠSal": 5136,
      "ged": 5137,
      "ĠPaci": 5138,
      "ĠOctober": 5139,
      "Ġresponsables": 5140,
      "aly": 5141,
      "Ġmess": 5142,
      "Over": 5143,
      "ĠGames": 5144,
      "Ġcela": 5145,
      "Ġhar": 5146,
      "Ġsuivi": 5147,
      "Ġlook": 5148,
      "cides": 5149,
      "endix": 5150,
      "ĠJourn": 5151,
      "ĠChina": 5152,
      "Ġlearning": 5153,
      "Ãīcosse": 5154,
      "Ġlink": 5155,
      "Ġorient": 5156,
      "ĠÃ©labor": 5157,
      "Ġhon": 5158,
      "II": 5159,
      "igence": 5160,
      "Ġrelation": 5161,
      "Ã©der": 5162,
      "Ġmuse": 5163,
      "ware": 5164,
      "Su": 5165,
      "ĠreÃ§u": 5166,
      "bsite": 5167,
      "isition": 5168,
      "Ġbonne": 5169,
      "ulle": 5170,
      "ablement": 5171,
      "Ġsaf": 5172,
      "ochtone": 5173,
      "iquement": 5174,
      "Ġtel": 5175,
      "Ġcollabor": 5176,
      "Ġconsistent": 5177,
      "lem": 5178,
      "lines": 5179,
      "ĠEl": 5180,
      "Fin": 5181,
      "uant": 5182,
      "Ġinten": 5183,
      "MENT": 5184,
      "ĠSaint": 5185,
      "ĠfÃ©vrier": 5186,
      "Ġtechnique": 5187,
      "ĠconnaÃ®tre": 5188,
      "Ġnutri": 5189,
      "ĠÃ©trangÃ¨res": 5190,
      "Ġatteindre": 5191,
      "Ġbrevets": 5192,
      "Ġbank": 5193,
      "Ġlet": 5194,
      "Ġannoun": 5195,
      "Ġcreation": 5196,
      "ĠBra": 5197,
      "ĠfinanciÃ¨res": 5198,
      "ĠCopyright": 5199,
      "Ġproposed": 5200,
      "Ġdonner": 5201,
      "Ġpourcentage": 5202,
      "http": 5203,
      "Ġide": 5204,
      "Ġ38": 5205,
      "ĠAmerica": 5206,
      "Ġlegislation": 5207,
      "Ġlutte": 5208,
      "ĠTax": 5209,
      "Ġteam": 5210,
      "ĠCommunications": 5211,
      "Ġinvestissements": 5212,
      "ious": 5213,
      "erie": 5214,
      "ĠGovern": 5215,
      "ĠWestern": 5216,
      "ĠcaractÃ©ris": 5217,
      "41": 5218,
      "ĠConference": 5219,
      "SS": 5220,
      "Ġdynam": 5221,
      "Ġsecurity": 5222,
      "tacts": 5223,
      "nexes": 5224,
      "Ġproced": 5225,
      "not": 5226,
      "Ġexplo": 5227,
      "Ġcommitment": 5228,
      "\",": 5229,
      "tÃ©rieur": 5230,
      "Ġcul": 5231,
      "Ġaugmenter": 5232,
      "Ġ,": 5233,
      "Ġcontribute": 5234,
      "ĠderniÃ¨re": 5235,
      "honorable": 5236,
      "ĠMuseum": 5237,
      "ache": 5238,
      "ĠfrÃ©": 5239,
      "ĠBC": 5240,
      "foundland": 5241,
      "trices": 5242,
      "Ġaudio": 5243,
      "ĠDelivery": 5244,
      "98": 5245,
      "Ġant": 5246,
      "ĠsÃ©n": 5247,
      "ĠconfÃ©r": 5248,
      "Ġfree": 5249,
      "ĠSpe": 5250,
      "Ġoperations": 5251,
      "Ġajou": 5252,
      "Ġhau": 5253,
      "Ġexception": 5254,
      "ĠFound": 5255,
      "Ã©taires": 5256,
      "ĠAtlantic": 5257,
      "More": 5258,
      "ĠBu": 5259,
      "Ġmanifest": 5260,
      "Dire": 5261,
      "Ġothers": 5262,
      "ĠproblÃ¨me": 5263,
      "Ġcollective": 5264,
      "Ġ2010": 5265,
      "ricultural": 5266,
      "TER": 5267,
      "ring": 5268,
      "Ġnovembre": 5269,
      "ĠWinnipeg": 5270,
      "Ġoffice": 5271,
      "ĠSupp": 5272,
      "ĠÃ©missions": 5273,
      "ĠFramework": 5274,
      "ĠconsÃ©quent": 5275,
      "Ġvoyageurs": 5276,
      "Ġathletes": 5277,
      "arts": 5278,
      "Ġonline": 5279,
      "ways": 5280,
      "Ġdit": 5281,
      "Ġimports": 5282,
      "ĠProgramming": 5283,
      "Ġtransform": 5284,
      "ĠMagaz": 5285,
      "option": 5286,
      "illance": 5287,
      "ender": 5288,
      "puis": 5289,
      "ĠCOM": 5290,
      "Ġtreat": 5291,
      "ĠValue": 5292,
      "Ġapplicable": 5293,
      "ĠcomplÃ©": 5294,
      "Ġeducational": 5295,
      "Ġaltern": 5296,
      "Ġlabour": 5297,
      "Ġauteurs": 5298,
      "ĠnumÃ©ro": 5299,
      "38": 5300,
      "Ġ($": 5301,
      "apprentissage": 5302,
      "ĠParliament": 5303,
      "Ġaccording": 5304,
      "Ġfamili": 5305,
      "Ġpermanent": 5306,
      "Ġ42": 5307,
      "Ġrendre": 5308,
      "ĠprÃ©occup": 5309,
      "Ġvisiteurs": 5310,
      "Ġsafety": 5311,
      "Other": 5312,
      "oncÃ©": 5313,
      "36": 5314,
      "37": 5315,
      "ĠSub": 5316,
      "Ġexpect": 5317,
      "Ġresponse": 5318,
      "ĠdiffÃ©rentes": 5319,
      "ĠAutres": 5320,
      "CR": 5321,
      "grÃ¨s": 5322,
      "Ġ%.": 5323,
      "Ġvision": 5324,
      "Ġexpos": 5325,
      "ĠCode": 5326,
      "ror": 5327,
      "Ġprincipalement": 5328,
      "Although": 5329,
      "Ġprocessing": 5330,
      "ute": 5331,
      "organisation": 5332,
      "ION": 5333,
      "dits": 5334,
      "ĠDans": 5335,
      "Ġ90": 5336,
      "aume": 5337,
      "ensive": 5338,
      "temps": 5339,
      "Ġapproximately": 5340,
      "amÃ©lioration": 5341,
      "Ãªmes": 5342,
      "ĠcoopÃ©ratives": 5343,
      "ancing": 5344,
      "ĠForeign": 5345,
      "Cela": 5346,
      "Ġseul": 5347,
      "Ġautochtone": 5348,
      "tual": 5349,
      "Ġexclus": 5350,
      "Ġtravaille": 5351,
      "Ġindependent": 5352,
      "Ġprimary": 5353,
      "Ġperspectives": 5354,
      "dou": 5355,
      "cepti": 5356,
      "WK": 5357,
      "Ġassociation": 5358,
      "armon": 5359,
      "treet": 5360,
      "ĠCT": 5361,
      "vues": 5362,
      "ĠindÃ©pend": 5363,
      "Ġbooks": 5364,
      "Ġcaus": 5365,
      "ĠOut": 5366,
      "avoir": 5367,
      "Ġrevenue": 5368,
      "troduction": 5369,
      "ĠâĢ¨": 5370,
      "Ġeas": 5371,
      "Ġrecueill": 5372,
      "itiÃ©": 5373,
      "Ġhaving": 5374,
      "Ġespecially": 5375,
      "SA": 5376,
      "Ġpied": 5377,
      "Ġarri": 5378,
      "Ġoptions": 5379,
      "Ġminimum": 5380,
      "tit": 5381,
      "Ġloss": 5382,
      "42": 5383,
      "500": 5384,
      "ĠCA": 5385,
      "utilis": 5386,
      "Ã¨ge": 5387,
      "Ġtoutefois": 5388,
      "Ġcapit": 5389,
      "ĠindiquÃ©": 5390,
      "chÃ©s": 5391,
      "approvisionnement": 5392,
      "Ġcontribut": 5393,
      "Ġrele": 5394,
      "ouverture": 5395,
      "ĠmusÃ©es": 5396,
      "Ġ1991": 5397,
      "Ġadministrative": 5398,
      "Ã¨rement": 5399,
      "lications": 5400,
      "Ġpolice": 5401,
      "eal": 5402,
      "ĠCor": 5403,
      "Lors": 5404,
      "ĠTel": 5405,
      "ĠFebruary": 5406,
      "Ġaucun": 5407,
      "gÃ©": 5408,
      "Ġscience": 5409,
      "ĠIndex": 5410,
      "Ġpack": 5411,
      "Ã¨les": 5412,
      "Ġsound": 5413,
      "izing": 5414,
      "bunal": 5415,
      "Ġhom": 5416,
      "Ġvalues": 5417,
      "Ġtaille": 5418,
      "iled": 5419,
      "ably": 5420,
      "uelle": 5421,
      "utes": 5422,
      "Ġget": 5423,
      "ĠImm": 5424,
      "ĠGerman": 5425,
      "97": 5426,
      "Ġrequest": 5427,
      "Ġsemble": 5428,
      "PS": 5429,
      "Comm": 5430,
      "ĠState": 5431,
      "ĠFinancial": 5432,
      "ĠMexico": 5433,
      "Ġoffered": 5434,
      "ophone": 5435,
      "ureaux": 5436,
      "Ġforecast": 5437,
      "ĠName": 5438,
      "ocra": 5439,
      "ĠRen": 5440,
      "Ġsize": 5441,
      "Ġtechnical": 5442,
      "lier": 5443,
      "Ġjust": 5444,
      "Ġresponsable": 5445,
      "Ġsoil": 5446,
      "ĠstratÃ©giques": 5447,
      "sc": 5448,
      "ĠAssistance": 5449,
      "Ġtravaill": 5450,
      "ĠProgrammation": 5451,
      "Ġevidence": 5452,
      "yd": 5453,
      "copie": 5454,
      "Ġsubstanti": 5455,
      "aleur": 5456,
      "Ġcomplete": 5457,
      "Ġtandis": 5458,
      "Ġbro": 5459,
      "Ġhaut": 5460,
      "chedule": 5461,
      "Ġcompleted": 5462,
      "ĠNove": 5463,
      "Ġmaximum": 5464,
      "ĠLabrador": 5465,
      "Ġcompens": 5466,
      "ĠYork": 5467,
      "Ġsuscepti": 5468,
      "Ġname": 5469,
      "ĠContribution": 5470,
      "Ġoctobre": 5471,
      "Ġvic": 5472,
      "ĠNunavut": 5473,
      "Ġdispos": 5474,
      "Ġneeded": 5475,
      "Ġsondage": 5476,
      "ĠMed": 5477,
      "Ġcontext": 5478,
      "Ġfournit": 5479,
      "ĠChine": 5480,
      "augmentation": 5481,
      "ĠNovember": 5482,
      "otechnolog": 5483,
      "Sta": 5484,
      "Ġ32": 5485,
      "Ġweb": 5486,
      "Ġobjectif": 5487,
      "ĠBroad": 5488,
      "Ã©tablir": 5489,
      "Â»": 5490,
      "Ġmandate": 5491,
      "Ġstock": 5492,
      "Ġ3000": 5493,
      "Ġbuilding": 5494,
      "ensus": 5495,
      "fficient": 5496,
      "Ġpermettra": 5497,
      "ports": 5498,
      "ĠmÃ©thodes": 5499,
      "territ": 5500,
      "Ġhere": 5501,
      "68": 5502,
      "Ġapplicant": 5503,
      "itiatives": 5504,
      "Ġpartnership": 5505,
      "monton": 5506,
      "ids": 5507,
      "ĠParticip": 5508,
      "Ġrang": 5509,
      "Ġevalu": 5510,
      "ĠGre": 5511,
      "Ġschools": 5512,
      "fa": 5513,
      "lor": 5514,
      "rage": 5515,
      "Ġjob": 5516,
      "ĠlÃ©gisl": 5517,
      "Ġdri": 5518,
      "Ġlack": 5519,
      "Ġhalf": 5520,
      "FIC": 5521,
      "fit": 5522,
      "once": 5523,
      "udget": 5524,
      "osp": 5525,
      "ĠFoundation": 5526,
      "Ġorganisation": 5527,
      "efficacitÃ©": 5528,
      "ĠBe": 5529,
      "ĠJuly": 5530,
      "aÃ®t": 5531,
      "eneurs": 5532,
      "ĠpossibilitÃ©": 5533,
      "Ġchacun": 5534,
      "Ġleadership": 5535,
      "urrent": 5536,
      "Ġtendance": 5537,
      "Ġadministration": 5538,
      "ĠPerform": 5539,
      "Ġpurs": 5540,
      "Ġdecisions": 5541,
      "Ġrelatifs": 5542,
      "Ġfacilities": 5543,
      "lÃ¨te": 5544,
      "Ġvariety": 5545,
      "Ġterritoires": 5546,
      "Ġrecommendations": 5547,
      "voy": 5548,
      "ulletin": 5549,
      "perÃ§u": 5550,
      "Ġdemonstr": 5551,
      "Ġanti": 5552,
      "Ġ1993": 5553,
      "Ã©dÃ©ration": 5554,
      "Ġpresented": 5555,
      "sh": 5556,
      "ĠrÃ©glementation": 5557,
      "mic": 5558,
      "real": 5559,
      "CISTI": 5560,
      "Ġethnoc": 5561,
      "Ġcompetitive": 5562,
      "atte": 5563,
      "Ġagree": 5564,
      "Ġimportantes": 5565,
      "Ã¨rent": 5566,
      "Ġbegin": 5567,
      "ATE": 5568,
      "Ġtransfert": 5569,
      "90": 5570,
      "Ġquelle": 5571,
      "effec": 5572,
      "Ġlimit": 5573,
      "Ġjuillet": 5574,
      "Ġapport": 5575,
      "titution": 5576,
      "Ġactuelle": 5577,
      "ĠCalgary": 5578,
      "Ġpartenariat": 5579,
      "aw": 5580,
      "Ġfamil": 5581,
      "Ġenhance": 5582,
      "Ġwrit": 5583,
      "Ġpublishing": 5584,
      "TE": 5585,
      "Ġclaire": 5586,
      "Ġ65": 5587,
      "Ġpil": 5588,
      "Ġvigueur": 5589,
      "Ġpermettant": 5590,
      "aign": 5591,
      "Ġoperating": 5592,
      "ĠrÃ¨gles": 5593,
      "hist": 5594,
      "ĠprÃ©sence": 5595,
      "ĠQC": 5596,
      "ĠdÃ©pos": 5597,
      "Ġrenouvel": 5598,
      "Ġcoordonn": 5599,
      "times": 5600,
      "Ġconception": 5601,
      "ĠAv": 5602,
      "ocol": 5603,
      "Ġexpertise": 5604,
      "Ġadvertis": 5605,
      "Ġagent": 5606,
      "ĠprÃ©sentation": 5607,
      "Ġx": 5608,
      "ĠfÃ©dÃ©rales": 5609,
      "gement": 5610,
      "Ġir": 5611,
      "ĠrÃ©duction": 5612,
      "ĠminoritÃ©s": 5613,
      "Ġroy": 5614,
      "uellement": 5615,
      "Ġsum": 5616,
      "iency": 5617,
      "Ġthroughout": 5618,
      "venu": 5619,
      "apers": 5620,
      "Organ": 5621,
      "tres": 5622,
      "acqu": 5623,
      "Ġimpacts": 5624,
      "Ġemerg": 5625,
      "Uni": 5626,
      "Ġdiverse": 5627,
      "Ġwant": 5628,
      "ĠÃ©tabli": 5629,
      "Ġproblems": 5630,
      "ox": 5631,
      "Ġproducteur": 5632,
      "GR": 5633,
      "ĠCre": 5634,
      "Ġposts": 5635,
      "place": 5636,
      "fection": 5637,
      "Ġpratique": 5638,
      "ĠÃ©coles": 5639,
      "objectif": 5640,
      "Ġade": 5641,
      "Ġfestivals": 5642,
      "Ġmy": 5643,
      "DE": 5644,
      "TIV": 5645,
      "ĠPat": 5646,
      "ĠaccroÃ®tre": 5647,
      "ĠintÃ©rÃªts": 5648,
      "Ġemb": 5649,
      "lebr": 5650,
      "cluding": 5651,
      "Ġfinancing": 5652,
      "Ġoutils": 5653,
      "ĠvidÃ©o": 5654,
      "Ab": 5655,
      "Ġremb": 5656,
      "ĠFunding": 5657,
      "anglais": 5658,
      "Ġappu": 5659,
      "ĠchaÃ®ne": 5660,
      "ĠEX": 5661,
      "ĠArt": 5662,
      "Ġlinguistic": 5663,
      "Ġ<": 5664,
      "ĠrÃ©seaux": 5665,
      "Ġamend": 5666,
      "TÃ©l": 5667,
      "annexe": 5668,
      "ĠAcad": 5669,
      "uve": 5670,
      "zil": 5671,
      "Ġcommerciale": 5672,
      "ĠrÃ©sid": 5673,
      "accueil": 5674,
      "AUCC": 5675,
      "ĠconformÃ©ment": 5676,
      "Ġconclus": 5677,
      "Ġcivil": 5678,
      "Ġsurv": 5679,
      "Ġbroadcast": 5680,
      "ĠHist": 5681,
      "Ġcommenc": 5682,
      "Ġ34": 5683,
      "Ġdonne": 5684,
      "andid": 5685,
      "ĠinfÃ©rie": 5686,
      "IV": 5687,
      "ĠMulticulturalism": 5688,
      "quÃ©s": 5689,
      "Ġmoney": 5690,
      "orporations": 5691,
      "avenir": 5692,
      "ĠExport": 5693,
      "Ġrelationship": 5694,
      "Ġmission": 5695,
      "Ġ%,": 5696,
      "Ġtenir": 5697,
      "Ġways": 5698,
      "ĠAccord": 5699,
      "ĠMet": 5700,
      "Ġaucune": 5701,
      "fique": 5702,
      "ativement": 5703,
      "Ã©rÃ©s": 5704,
      "Ġgam": 5705,
      "Ġlignes": 5706,
      "avis": 5707,
      "entreprises": 5708,
      "urant": 5709,
      "icro": 5710,
      "Ġban": 5711,
      "ired": 5712,
      "ĠRoyaume": 5713,
      "Ġinstallations": 5714,
      "Cour": 5715,
      "Ġrestaur": 5716,
      "Ġconcerns": 5717,
      "Ġdepend": 5718,
      "oster": 5719,
      "Ġquelque": 5720,
      "ĠSenate": 5721,
      "Ġconst": 5722,
      "amÃ©liorer": 5723,
      "Ġbio": 5724,
      "ĠInf": 5725,
      "Ġpublished": 5726,
      "aker": 5727,
      "PO": 5728,
      "Ġtransition": 5729,
      "Ġarrang": 5730,
      "Ġlib": 5731,
      "Ġdirectrices": 5732,
      "urement": 5733,
      "oÃ»t": 5734,
      "Ġsegment": 5735,
      "Ġwheat": 5736,
      "Ġcentral": 5737,
      "ĠDÃ©veloppement": 5738,
      "34": 5739,
      "Ġententes": 5740,
      "ĠJapon": 5741,
      "Ġrati": 5742,
      "Ġmodifications": 5743,
      "IE": 5744,
      "sembl": 5745,
      "tenance": 5746,
      "Ġparticipate": 5747,
      "eds": 5748,
      "ĠRoyal": 5749,
      "kes": 5750,
      "Ġlocaux": 5751,
      "ulteurs": 5752,
      "ĠPeriod": 5753,
      "Ġensemble": 5754,
      "Ġmeilleure": 5755,
      "Ġtherefore": 5756,
      "Ġpermettent": 5757,
      "issons": 5758,
      "ANG": 5759,
      "Ġchangement": 5760,
      "ĠcatÃ©gories": 5761,
      "ĠrÃ©uss": 5762,
      "Ġbalance": 5763,
      "ĠNewfoundland": 5764,
      "quently": 5765,
      "inte": 5766,
      "ĠMr": 5767,
      "lymp": 5768,
      "atures": 5769,
      "ĠJournal": 5770,
      "ĠPage": 5771,
      "Ġnationales": 5772,
      "Ġcertification": 5773,
      "Ġcycle": 5774,
      "quelles": 5775,
      "ĠÃ©tablir": 5776,
      "Ġsupported": 5777,
      "Ġcourse": 5778,
      "Ġtitres": 5779,
      "ĠRÃ¨g": 5780,
      "Ġupon": 5781,
      "ĠprÃªts": 5782,
      "imes": 5783,
      "Ġaffic": 5784,
      "ĠconsidÃ©rable": 5785,
      "ĠlimitÃ©": 5786,
      "Ġprogrammation": 5787,
      "Ġmalad": 5788,
      "Prince": 5789,
      "When": 5790,
      "Ġ47": 5791,
      "Ġaccomp": 5792,
      "inÃ©": 5793,
      "Ġvital": 5794,
      "Ġapproche": 5795,
      "Ġpartnerships": 5796,
      "Ġpersonal": 5797,
      "ĠaÃ©ri": 5798,
      "ĠJean": 5799,
      "Ġreste": 5800,
      "ialogue": 5801,
      "Ġsingle": 5802,
      "Ġhistory": 5803,
      "west": 5804,
      "Ġsociale": 5805,
      "ĠGroupe": 5806,
      "Ġfees": 5807,
      "Ġï¬ģn": 5808,
      "cr": 5809,
      "ĠCamp": 5810,
      "Ġconservation": 5811,
      "Ġrembours": 5812,
      "ĠPR": 5813,
      "Ġsumm": 5814,
      "Ġpostsecond": 5815,
      "ĠprÃ©sident": 5816,
      "Ġgouvernementaux": 5817,
      "Ġdemandeur": 5818,
      "Ġresponsibility": 5819,
      "ored": 5820,
      "CAN": 5821,
      "Ġgenre": 5822,
      "Ġrenforcer": 5823,
      "pect": 5824,
      "order": 5825,
      "bes": 5826,
      "lacement": 5827,
      "ually": 5828,
      "Ġlanc": 5829,
      "ivre": 5830,
      "mograph": 5831,
      "Ġanticip": 5832,
      "69": 5833,
      "taire": 5834,
      "ĠDocu": 5835,
      "Ġpropres": 5836,
      "Ġintended": 5837,
      "Neu": 5838,
      "Ġclim": 5839,
      "Ġsommes": 5840,
      "Ġprepared": 5841,
      "Ġpaper": 5842,
      "ĠVi": 5843,
      "ĠAccess": 5844,
      "Ġproduce": 5845,
      "ĠRegional": 5846,
      "ĠMarketing": 5847,
      "Ġ400": 5848,
      "2008": 5849,
      "aster": 5850,
      "ignÃ©": 5851,
      "ĠAdvis": 5852,
      "ULT": 5853,
      "Ġcompetition": 5854,
      "Ġfaciliter": 5855,
      "ĠColle": 5856,
      "ibilitÃ©": 5857,
      "ographique": 5858,
      "Ġchapitre": 5859,
      "ĠCity": 5860,
      "SP": 5861,
      "Ġportant": 5862,
      "Ġindicateurs": 5863,
      "ken": 5864,
      "son": 5865,
      "Ġcrimin": 5866,
      "ĠrÃ©perc": 5867,
      "ĠYouth": 5868,
      "Ġdays": 5869,
      "Ġacad": 5870,
      "Ġstate": 5871,
      "Ġ95": 5872,
      "Comp": 5873,
      "ĠUne": 5874,
      "ĠAgricultural": 5875,
      "Ġsections": 5876,
      "ĠmonÃ©taire": 5877,
      "ORT": 5878,
      "Ġphy": 5879,
      "Ġrather": 5880,
      "duits": 5881,
      "Ġbilingual": 5882,
      "copieur": 5883,
      "eth": 5884,
      "Ġcertific": 5885,
      "Ġstatus": 5886,
      "Ġpropre": 5887,
      "tor": 5888,
      "Ġdess": 5889,
      "Ġalimentaire": 5890,
      "lers": 5891,
      "ĠOper": 5892,
      "orary": 5893,
      "Ġstim": 5894,
      "32": 5895,
      "ĠNe": 5896,
      "ĠHigh": 5897,
      "ĠStreet": 5898,
      "ĠStud": 5899,
      "Ġprocesses": 5900,
      "Ġbusinesses": 5901,
      "ĠÅĵuvres": 5902,
      "Publ": 5903,
      "ĠSurvey": 5904,
      "Ġlec": 5905,
      "Ġexpli": 5906,
      "Ġrecours": 5907,
      "Ġbuy": 5908,
      "Ġrespective": 5909,
      "Ġdecline": 5910,
      "FC": 5911,
      "Ġcrops": 5912,
      "Ġongoing": 5913,
      "ĠMagazine": 5914,
      "entente": 5915,
      "Ġapprouv": 5916,
      "ĠInvest": 5917,
      "Ġseries": 5918,
      "ĠcollectivitÃ©": 5919,
      "Ġcomponents": 5920,
      "Ġapproved": 5921,
      "Ġcomporte": 5922,
      "INE": 5923,
      "Ġconsulta": 5924,
      "ĠamÃ©ricains": 5925,
      "visions": 5926,
      "Ġcandid": 5927,
      "Ġcharacter": 5928,
      "ĠMo": 5929,
      "orient": 5930,
      "Ġtiers": 5931,
      "Ġsuffis": 5932,
      "ciation": 5933,
      "Ġstudent": 5934,
      "ductions": 5935,
      "Ġparticipant": 5936,
      "ĠsupplÃ©mentaires": 5937,
      "Ġaccordance": 5938,
      "ĠPort": 5939,
      "Ġdix": 5940,
      "Ġdisposition": 5941,
      "Ã©volution": 5942,
      "Ġvende": 5943,
      "Ġconnexes": 5944,
      "Ġlinguistiques": 5945,
      "onal": 5946,
      "Ġdestinations": 5947,
      "ĠCan": 5948,
      "ĠÃ¢": 5949,
      "ĠMod": 5950,
      "umul": 5951,
      "Ġextra": 5952,
      "Ġcommuniquer": 5953,
      "Ġregulations": 5954,
      "Ġcomprennent": 5955,
      "ĠAustralia": 5956,
      "Ġparta": 5957,
      "ĠÃ©p": 5958,
      "Ġconstat": 5959,
      "Neuve": 5960,
      "ters": 5961,
      "Ġdifficile": 5962,
      "fied": 5963,
      "İle": 5964,
      "riers": 5965,
      "Ġshows": 5966,
      "ĠreprÃ©sentent": 5967,
      "ĠresponsabilitÃ©s": 5968,
      "ĠmodalitÃ©s": 5969,
      "herche": 5970,
      "Ġoccup": 5971,
      "Offic": 5972,
      "sie": 5973,
      "ĠpiÃ¨": 5974,
      "ief": 5975,
      "Ġplants": 5976,
      "Ġelectronic": 5977,
      "Ġ48": 5978,
      "ĠnumÃ©rique": 5979,
      "gov": 5980,
      "verg": 5981,
      "ĠrÃ©alisation": 5982,
      "ĠAngl": 5983,
      "Per": 5984,
      "ĠStand": 5985,
      "Ġestimated": 5986,
      "Ġferme": 5987,
      "Ġprovisions": 5988,
      "ĠId": 5989,
      "ounts": 5990,
      "Min": 5991,
      "Ġgain": 5992,
      "chan": 5993,
      "Ġperspective": 5994,
      "FA": 5995,
      "identi": 5996,
      "Ġrenew": 5997,
      "Ġuntil": 5998,
      "ĠdÃ©mont": 5999,
      "ows": 6000,
      "ĠComments": 6001,
      "Ġexpand": 6002,
      "adresse": 6003,
      "rÃ©sil": 6004,
      "Ġimproved": 6005,
      "Ġprepar": 6006,
      "Ġsupporting": 6007,
      "see": 6008,
      "%.": 6009,
      "Ġnatural": 6010,
      "ĠAfric": 6011,
      "ologie": 6012,
      "Ã©quipe": 6013,
      "Ġdone": 6014,
      "ommend": 6015,
      "Ġfeu": 6016,
      "Ġsyn": 6017,
      "Ġ36": 6018,
      "Ġcharge": 6019,
      "tait": 6020,
      "ĠCham": 6021,
      "lantique": 6022,
      "Ġcarry": 6023,
      "Ġscolaire": 6024,
      "Cont": 6025,
      "PR": 6026,
      "Ġremar": 6027,
      "ĠutilisÃ©": 6028,
      "Ġfaisant": 6029,
      "Ġfruit": 6030,
      "ĠWhat": 6031,
      "entremise": 6032,
      "ĠprogrÃ¨s": 6033,
      "ĠDirec": 6034,
      "ĠEs": 6035,
      "ĠInnovation": 6036,
      "ceptions": 6037,
      "ĠRet": 6038,
      "Ġsepar": 6039,
      "Ġsubvention": 6040,
      "ĠWest": 6041,
      "lant": 6042,
      "ĠNon": 6043,
      "Ġrelatively": 6044,
      "ĠPA": 6045,
      "Ġannuelle": 6046,
      "ĠHouse": 6047,
      "ĠintÃ©gr": 6048,
      "load": 6049,
      "ĠDay": 6050,
      "expÃ©rience": 6051,
      "canad": 6052,
      "Ġchercheurs": 6053,
      "Ġfarmers": 6054,
      "ĠPay": 6055,
      "Ġsurveillance": 6056,
      "Â¯": 6057,
      "Ġtelles": 6058,
      "ĠAAFC": 6059,
      "ĠHel": 6060,
      "Ġinfluence": 6061,
      "look": 6062,
      "ĠdÃ©fis": 6063,
      "house": 6064,
      "Ġutiliser": 6065,
      "ĠTerre": 6066,
      "Ġwebsite": 6067,
      "Since": 6068,
      "ĠFre": 6069,
      "Ġtaxes": 6070,
      "Ġrecipients": 6071,
      "chantill": 6072,
      "ĠObjec": 6073,
      "Ġnav": 6074,
      "Ġseen": 6075,
      "Ġjoint": 6076,
      "Ġcontinues": 6077,
      "Ġparticuliers": 6078,
      "ilos": 6079,
      "atabase": 6080,
      "Ġput": 6081,
      "Ã©nat": 6082,
      "ĠÃ©vÃ©nements": 6083,
      "anismes": 6084,
      "tream": 6085,
      "Ġproblem": 6086,
      "ĠrÃ©f": 6087,
      "QuÃ©bec": 6088,
      "ĠMich": 6089,
      "ĠbibliothÃ¨ques": 6090,
      "TD": 6091,
      "mÃ©": 6092,
      "Ġgrant": 6093,
      "ĠKing": 6094,
      "ĠconsidÃ©rÃ©": 6095,
      "ĠMexique": 6096,
      "ĠCer": 6097,
      "Ġlequel": 6098,
      "Ġcash": 6099,
      "Ġdescribed": 6100,
      "Ġaccessible": 6101,
      "ennet": 6102,
      "Ġ39": 6103,
      "Ġspor": 6104,
      "Ġcome": 6105,
      "Ġage": 6106,
      "Ġprovenance": 6107,
      "ĠdurÃ©e": 6108,
      "Ġsuivante": 6109,
      "Ġlaun": 6110,
      "Ġauth": 6111,
      "Ġdisponible": 6112,
      "Ġaccrue": 6113,
      "ĠForum": 6114,
      "==": 6115,
      "gust": 6116,
      "ĠStatistique": 6117,
      "entific": 6118,
      "Ġsoutenir": 6119,
      "Ġaffect": 6120,
      "Ġbring": 6121,
      "ez": 6122,
      "Ġfish": 6123,
      "Ġkeep": 6124,
      "Ġturn": 6125,
      "ĠsÃ©lection": 6126,
      "ica": 6127,
      "Ġcomptes": 6128,
      "Ġtotale": 6129,
      "ĠSpecial": 6130,
      "Â¯Â¯": 6131,
      "Ġpages": 6132,
      "Ġeffort": 6133,
      "Ġoffrent": 6134,
      "Ġremo": 6135,
      "ĠCRTC": 6136,
      "Ġsens": 6137,
      "Ġreflect": 6138,
      "ďă": 6139,
      "Ġchef": 6140,
      "Ġportion": 6141,
      "ĠutilisÃ©s": 6142,
      "ĠPost": 6143,
      "Ġcannot": 6144,
      "where": 6145,
      "ĠPolitique": 6146,
      "Ġgamme": 6147,
      "due": 6148,
      "Ã¨ve": 6149,
      "ĠIP": 6150,
      "Ġbelieve": 6151,
      "Ġtoday": 6152,
      "zed": 6153,
      "ĠÃ©levÃ©s": 6154,
      "Vous": 6155,
      "ĠdÃ©taillÃ©": 6156,
      "DÃ©": 6157,
      "Ã¢tre": 6158,
      "Ġlocation": 6159,
      "lin": 6160,
      "dies": 6161,
      "Ġindicators": 6162,
      "ections": 6163,
      "ĠAnalys": 6164,
      "achat": 6165,
      "ĠArchives": 6166,
      "Ġluc": 6167,
      "Ġpriority": 6168,
      "Ġouv": 6169,
      "Ġlarger": 6170,
      "Ġdegree": 6171,
      "Ġpower": 6172,
      "Ġcall": 6173,
      "ĠCompany": 6174,
      "ĠEdward": 6175,
      "64": 6176,
      "Ġplease": 6177,
      "Ġrue": 6178,
      "ground": 6179,
      "--------": 6180,
      "ral": 6181,
      "Ġconfi": 6182,
      "indic": 6183,
      "MS": 6184,
      "Ġtrop": 6185,
      "Ġoriginal": 6186,
      "Â¨": 6187,
      "bation": 6188,
      "Ġtowards": 6189,
      "Ġinterviews": 6190,
      "ĠprÃ©s": 6191,
      "ĠRecord": 6192,
      "Ġorganic": 6193,
      "ĠcÃ´": 6194,
      "ĠCN": 6195,
      "Ġaccords": 6196,
      "ourses": 6197,
      "ĠminoritÃ©": 6198,
      "Ġimplemented": 6199,
      "esp": 6200,
      "QU": 6201,
      "Ġpan": 6202,
      "ĠSÃ©nat": 6203,
      "Ġattention": 6204,
      "Ġ43": 6205,
      "No": 6206,
      "ĠMac": 6207,
      "extÃ©rieur": 6208,
      "Ġindire": 6209,
      "ennes": 6210,
      "Ġcopies": 6211,
      "Certains": 6212,
      "ĠprocÃ©dures": 6213,
      "elt": 6214,
      "ĠEquipment": 6215,
      "Ġpen": 6216,
      "Ġpros": 6217,
      "Ã©cu": 6218,
      "Ġusers": 6219,
      "Ġexamen": 6220,
      "aissent": 6221,
      "iteur": 6222,
      "Ġvideo": 6223,
      "ĠNet": 6224,
      "gets": 6225,
      "Ġaffir": 6226,
      "enquÃªte": 6227,
      "Ġresource": 6228,
      "ĠDivision": 6229,
      "ĠMal": 6230,
      "ĠHome": 6231,
      "ging": 6232,
      "ĠmoitiÃ©": 6233,
      "Ġmodifi": 6234,
      "Ġracisme": 6235,
      "ato": 6236,
      "quÃ©e": 6237,
      "ĠSchool": 6238,
      "Ġstrengthen": 6239,
      "ĠCe": 6240,
      "Ġutilisateurs": 6241,
      "ĠReference": 6242,
      "Ġlive": 6243,
      "aur": 6244,
      "Ġdel": 6245,
      "Ġsuit": 6246,
      "ĠrÃ©percussions": 6247,
      "Ġlivre": 6248,
      "Ġfabrication": 6249,
      "ĠPriv": 6250,
      "orge": 6251,
      "ĠdÃ©mar": 6252,
      "Ã¨de": 6253,
      "Ġcontinued": 6254,
      "By": 6255,
      "bers": 6256,
      "Ġconcept": 6257,
      "Ġjoin": 6258,
      "Ġoption": 6259,
      "Ġservir": 6260,
      "Ġrecognized": 6261,
      "2009": 6262,
      "Ġsociaux": 6263,
      "ĠLibrary": 6264,
      "ĠAide": 6265,
      "ĠÃ©changes": 6266,
      "Ġmeetings": 6267,
      "ĠmÃ©canismes": 6268,
      "Ġsensibilisation": 6269,
      "Ġarticle": 6270,
      "Ġconsumption": 6271,
      "Ġuniversitaire": 6272,
      "ae": 6273,
      "employ": 6274,
      "Ġhead": 6275,
      "urred": 6276,
      "Ġscientifiques": 6277,
      "ĠColl": 6278,
      "titut": 6279,
      "Ġsatisfaction": 6280,
      "ĠChin": 6281,
      "histoire": 6282,
      "ettes": 6283,
      "Ġavis": 6284,
      "Ġstimul": 6285,
      "ailed": 6286,
      "1999": 6287,
      "Ġconnaissance": 6288,
      "Ġserve": 6289,
      "Ġfaci": 6290,
      "Ġtraditional": 6291,
      "ĠIndic": 6292,
      "essources": 6293,
      "anco": 6294,
      "marily": 6295,
      "Ġefficient": 6296,
      "ĠEvaluation": 6297,
      "ĠValeur": 6298,
      "61": 6299,
      "Ġouver": 6300,
      "ĠdÃ©pend": 6301,
      "ĠResp": 6302,
      "expression": 6303,
      "Ġadvance": 6304,
      "ĠreprÃ©sentant": 6305,
      "ĠmodÃ¨les": 6306,
      "itizenship": 6307,
      "ateral": 6308,
      "Ġcontribuer": 6309,
      "Ġweek": 6310,
      "Ġgal": 6311,
      "ĠBrazil": 6312,
      "Many": 6313,
      "resent": 6314,
      "Ġsoins": 6315,
      "Ġagriculteurs": 6316,
      "Ġprocedures": 6317,
      "Ġlucra": 6318,
      "elves": 6319,
      "ience": 6320,
      "ĠGe": 6321,
      "Ġperfection": 6322,
      "mentaire": 6323,
      "Ġsupports": 6324,
      "FR": 6325,
      ")(": 6326,
      "Ġmaintain": 6327,
      "Ġprovision": 6328,
      "enant": 6329,
      "Ġalmost": 6330,
      "Ġinvesti": 6331,
      "Ġsold": 6332,
      "Ġhor": 6333,
      "Courriel": 6334,
      "ouvernement": 6335,
      "UH": 6336,
      "ĠProvincial": 6337,
      "ĠministÃ©ri": 6338,
      "ĠBay": 6339,
      "Ġdise": 6340,
      "allery": 6341,
      "Ġthough": 6342,
      "ĠCH": 6343,
      "Ġyield": 6344,
      "Ġtimes": 6345,
      "LV": 6346,
      "gent": 6347,
      "Ġmondial": 6348,
      "CTION": 6349,
      "Ġliter": 6350,
      "ĠdiplÃ´": 6351,
      "ĠdÃ©m": 6352,
      "Ġfigure": 6353,
      "Ġinitial": 6354,
      "ĠcompÃ©ti": 6355,
      "Ġpartout": 6356,
      "roit": 6357,
      "ĠPrin": 6358,
      "iner": 6359,
      "Ġgros": 6360,
      "Ġsurface": 6361,
      "Ġterre": 6362,
      "Ġground": 6363,
      "Ġgoals": 6364,
      "Ġincreases": 6365,
      "ĠmatiÃ¨res": 6366,
      "HQW": 6367,
      "SF": 6368,
      "ug": 6369,
      "index": 6370,
      "ĠdÃ©lÃ©": 6371,
      "IM": 6372,
      "Ġstatut": 6373,
      "Ġapplied": 6374,
      "uite": 6375,
      "Ã©riques": 6376,
      "ĠPrairies": 6377,
      "has": 6378,
      "Ġsamp": 6379,
      "TO": 6380,
      "aÃ¯": 6381,
      "Ġappuyer": 6382,
      "Ġvisitors": 6383,
      "douard": 6384,
      "Ġproduire": 6385,
      "eneur": 6386,
      "avant": 6387,
      "Ġ1992": 6388,
      "ennetÃ©": 6389,
      "ĠDurÃ©e": 6390,
      "Ġmagas": 6391,
      "OTAL": 6392,
      "Ġmonitoring": 6393,
      "know": 6394,
      "ana": 6395,
      "Ġvaste": 6396,
      "Ġspending": 6397,
      "ĠrÃ©ponse": 6398,
      "Ġ)": 6399,
      "Ġelements": 6400,
      "Ġpercentage": 6401,
      "Ġdec": 6402,
      "ĠImport": 6403,
      "Ġstandard": 6404,
      "Ġvend": 6405,
      "Ġlittle": 6406,
      "Ġvisible": 6407,
      "Ġeffects": 6408,
      "Ġforms": 6409,
      "URE": 6410,
      "Ġclearly": 6411,
      "Ġdefined": 6412,
      "Ġaujourd": 6413,
      "abilities": 6414,
      "ĠControl": 6415,
      "Ġfoods": 6416,
      "Ġcooperation": 6417,
      "Ġsummer": 6418,
      "Ġrequires": 6419,
      "Ġatteint": 6420,
      "obtenir": 6421,
      "Ġenjeux": 6422,
      "Est": 6423,
      "rÃ©h": 6424,
      "Ġapproval": 6425,
      "Ġalthough": 6426,
      "Ġsomm": 6427,
      "Ġcommittee": 6428,
      "Ġpotenti": 6429,
      "isÃ©e": 6430,
      "ilding": 6431,
      "pdf": 6432,
      "Ġnations": 6433,
      "ĠPARI": 6434,
      "istry": 6435,
      "ĠMÃ©": 6436,
      "Ġsignal": 6437,
      "ived": 6438,
      "ĠRegulations": 6439,
      "Ġmunicipal": 6440,
      "Ġmix": 6441,
      "Ġdurable": 6442,
      "Ġreconnaissance": 6443,
      "Ġreduced": 6444,
      "isÃ©es": 6445,
      "Ġindicate": 6446,
      "Information": 6447,
      "IG": 6448,
      "Ġplac": 6449,
      "ĠWater": 6450,
      "Ġsports": 6451,
      "Ġpresse": 6452,
      "Ġstatistiques": 6453,
      "inc": 6454,
      "Ġpal": 6455,
      "rep": 6456,
      "Ġenseignants": 6457,
      "Ġnewsp": 6458,
      "Ġprincipes": 6459,
      "Ġ300": 6460,
      "organis": 6461,
      "tification": 6462,
      "crire": 6463,
      "ouvez": 6464,
      "DC": 6465,
      "Ġprim": 6466,
      "ĠrÃ¨glements": 6467,
      "tte": 6468,
      "ĠAnnual": 6469,
      "Ġdraw": 6470,
      "Ġprimarily": 6471,
      "ĠNorthern": 6472,
      "Agence": 6473,
      "estock": 6474,
      "Ġvra": 6475,
      "ĠCourt": 6476,
      "Ġatti": 6477,
      "exper": 6478,
      "ĠClassification": 6479,
      "Ġworksh": 6480,
      "Ġteachers": 6481,
      "ĠPaul": 6482,
      "ĠCentres": 6483,
      "Ġclairement": 6484,
      "resh": 6485,
      "Ġsimple": 6486,
      "TM": 6487,
      "Ġdialogue": 6488,
      "Ġexc": 6489,
      "lois": 6490,
      "ĠUN": 6491,
      "RÃ©": 6492,
      "ĠContact": 6493,
      "Ġgive": 6494,
      "ĠTheatre": 6495,
      "truc": 6496,
      "ingap": 6497,
      "ĠLE": 6498,
      "ommod": 6499,
      "ght": 6500,
      "ORM": 6501,
      "Ainsi": 6502,
      "Ġdevant": 6503,
      "ipement": 6504,
      "Ġfamille": 6505,
      "According": 6506,
      "mÃ©di": 6507,
      "Ġpesti": 6508,
      "Ġentrepreneurs": 6509,
      "Ġfirm": 6510,
      "Ġguidelines": 6511,
      "auvais": 6512,
      "Ġmaisons": 6513,
      "ftware": 6514,
      "osph": 6515,
      "ĠprÃ©vues": 6516,
      "Ġleading": 6517,
      "Ġfunction": 6518,
      "Ġliqu": 6519,
      "Ġ;": 6520,
      "Ġextend": 6521,
      "Ġraisonn": 6522,
      "ĠDetail": 6523,
      "ĠgÃ©": 6524,
      "Depuis": 6525,
      "Ġdescriptif": 6526,
      "ĠpÃª": 6527,
      "ĠProcess": 6528,
      "Ġsearch": 6529,
      "reh": 6530,
      "Ġconsiste": 6531,
      "cing": 6532,
      "ĠSpec": 6533,
      "operation": 6534,
      "Ġstable": 6535,
      "ĠcaractÃ©ristiques": 6536,
      "ĠCommentaires": 6537,
      "ario": 6538,
      "ĠQues": 6539,
      "................": 6540,
      "ultÃ©": 6541,
      "arante": 6542,
      "key": 6543,
      "braries": 6544,
      "ĠsupÃ©rieur": 6545,
      "Se": 6546,
      "tentes": 6547,
      "ĠImplementation": 6548,
      "ĠOrganization": 6549,
      "Ġopp": 6550,
      "ĠparticipÃ©": 6551,
      "Ġphase": 6552,
      "Ġenable": 6553,
      "chol": 6554,
      "Ġconsolid": 6555,
      "Ġtranspar": 6556,
      "Ġwhole": 6557,
      "rÃ©tariat": 6558,
      "ĠPME": 6559,
      "Ġgestionnaires": 6560,
      "lated": 6561,
      "Ġalloc": 6562,
      "ĠfinancÃ©s": 6563,
      "Ġplain": 6564,
      "cle": 6565,
      "Ġdiffus": 6566,
      "useurs": 6567,
      "ots": 6568,
      "ecting": 6569,
      "Ġcommentaires": 6570,
      "ĠRed": 6571,
      "ĠCNRC": 6572,
      "Ġregistered": 6573,
      "Ġconsulter": 6574,
      "ĠAdv": 6575,
      "Ġaura": 6576,
      "Ġconclusions": 6577,
      "87": 6578,
      "wide": 6579,
      "ĠSME": 6580,
      "ĠcontribuÃ©": 6581,
      "Ġpartner": 6582,
      "ĠEv": 6583,
      "ĠrÃ©gional": 6584,
      "ĠpÃ©riodi": 6585,
      "ib": 6586,
      "ĠÃ©valuer": 6587,
      "Ġsubmitted": 6588,
      "ĠChe": 6589,
      "Ġsignificantly": 6590,
      "Ġfully": 6591,
      "ott": 6592,
      "ife": 6593,
      "Ġprincipale": 6594,
      "Ãīdouard": 6595,
      "Ġlabor": 6596,
      "Ġrapidement": 6597,
      "ĠCW": 6598,
      "ĠLim": 6599,
      "ĠrÃ¨glement": 6600,
      "Ġtravailler": 6601,
      "Ġseraient": 6602,
      "esting": 6603,
      "Ġline": 6604,
      "Ġactual": 6605,
      "yl": 6606,
      "Ġopinion": 6607,
      "Ġconnu": 6608,
      "Ġterritoire": 6609,
      "Ġliber": 6610,
      "Ġachieved": 6611,
      "ĠmÃ©thode": 6612,
      "ĠTelefilm": 6613,
      "DS": 6614,
      "Ġite": 6615,
      "ĠPL": 6616,
      "Statis": 6617,
      "ĠMain": 6618,
      "irie": 6619,
      "Ġwide": 6620,
      "ĠmÃ©can": 6621,
      "Ġvou": 6622,
      "quant": 6623,
      "ĠRelations": 6624,
      "iling": 6625,
      "Ġhouse": 6626,
      "Ġmarques": 6627,
      "rÃ©sor": 6628,
      "Exp": 6629,
      "rought": 6630,
      "ĠpassÃ©": 6631,
      "Ġconstituent": 6632,
      "ĠprÃªt": 6633,
      "DO": 6634,
      "Ġinterests": 6635,
      "clusion": 6636,
      "ĠMontreal": 6637,
      "Ġprises": 6638,
      "Ġdiscip": 6639,
      "gel": 6640,
      "Ġadequ": 6641,
      "ĠtroisiÃ¨me": 6642,
      "ĠTÃ©lÃ©film": 6643,
      "oon": 6644,
      "Ġadded": 6645,
      "ville": 6646,
      "Ġ613": 6647,
      "engagement": 6648,
      "ĠÃ©tat": 6649,
      "ĠDisc": 6650,
      "ĠUs": 6651,
      "cemment": 6652,
      "izes": 6653,
      "Ġcollections": 6654,
      "operatives": 6655,
      "tente": 6656,
      "Ġobtain": 6657,
      "Ġassu": 6658,
      "Ġspecifically": 6659,
      "mployment": 6660,
      "Ġpouvez": 6661,
      "Ġfiles": 6662,
      "CM": 6663,
      "Ġdef": 6664,
      "istics": 6665,
      "ĠdÃ©si": 6666,
      "Ġrules": 6667,
      "Ġnews": 6668,
      "Ġdomin": 6669,
      "ĠPosition": 6670,
      "Ġbudgets": 6671,
      "Ġvendeur": 6672,
      "Ġprofesse": 6673,
      "And": 6674,
      "Ġexten": 6675,
      "avid": 6676,
      "%,": 6677,
      "ĠAgroalimentaire": 6678,
      "accroÃ®tre": 6679,
      "ĠrÃ©aliser": 6680,
      "Ġpopular": 6681,
      "aging": 6682,
      "rich": 6683,
      "greg": 6684,
      "lled": 6685,
      "ĠPromo": 6686,
      "mbass": 6687,
      "Ġcircum": 6688,
      "Ġunderstand": 6689,
      "tainment": 6690,
      "Ġinclus": 6691,
      "Co": 6692,
      "eurs": 6693,
      "Ġpractice": 6694,
      "Ġcontrats": 6695,
      "Ġagreed": 6696,
      "Ġword": 6697,
      "Ġtyp": 6698,
      "Ġmean": 6699,
      "llem": 6700,
      "Ġmaintien": 6701,
      "Ġqualif": 6702,
      "Ġcaract": 6703,
      "britÃ©": 6704,
      "Ġretra": 6705,
      "rc": 6706,
      "Ġsigned": 6707,
      "82": 6708,
      "inst": 6709,
      "ĠInt": 6710,
      "Ġmedium": 6711,
      "iÃ©e": 6712,
      "ĠscÃ¨ne": 6713,
      "attle": 6714,
      "Ġprise": 6715,
      "Ġcanola": 6716,
      "ĠopÃ©rations": 6717,
      "back": 6718,
      "Ġpou": 6719,
      "mettre": 6720,
      "ĠAL": 6721,
      "Ġproposition": 6722,
      "oms": 6723,
      "Ġmove": 6724,
      "ĠprÃ©vus": 6725,
      "ssues": 6726,
      "Ġcontemp": 6727,
      "Ġfaud": 6728,
      "edi": 6729,
      "Ġpotentiel": 6730,
      "Ġlucratif": 6731,
      "Ġvolunte": 6732,
      "Ġedit": 6733,
      "ĠPIB": 6734,
      "Ġdecrease": 6735,
      "gÃ©es": 6736,
      "Ġabroad": 6737,
      "provincial": 6738,
      "ĠProperty": 6739,
      "Ġconfiance": 6740,
      "TR": 6741,
      "Ġmanque": 6742,
      "Ġexempl": 6743,
      "ubritÃ©": 6744,
      "Ġfindings": 6745,
      "ĠConsumer": 6746,
      "ded": 6747,
      "Ġexceed": 6748,
      "Ġinsurance": 6749,
      "Te": 6750,
      "ocole": 6751,
      "Ġresid": 6752,
      "ĠEnter": 6753,
      "Ġmaison": 6754,
      "Ġtrouve": 6755,
      "Ġtendances": 6756,
      "comm": 6757,
      "ĠcontrÃ´": 6758,
      "ĠdÃ©crit": 6759,
      "ĠentraÃ®": 6760,
      "ĠAnalysis": 6761,
      "Austral": 6762,
      "da": 6763,
      "Ġinstruments": 6764,
      "ĠdÃ©finition": 6765,
      "ĠEdmonton": 6766,
      "atch": 6767,
      "tiqu": 6768,
      "ĠBudget": 6769,
      "ĠFam": 6770,
      "ĠÃ©gard": 6771,
      "Ġanglophones": 6772,
      "Ġdetailed": 6773,
      "ney": 6774,
      "ody": 6775,
      "ercial": 6776,
      "Ġoccasion": 6777,
      "ĠAugust": 6778,
      "cÃ©": 6779,
      "Ġalong": 6780,
      "ĠintÃ©rie": 6781,
      "Ġclaim": 6782,
      "Ġpreuve": 6783,
      "Ġassets": 6784,
      "rÃ©hension": 6785,
      "ĠAppendix": 6786,
      "Ġrecognition": 6787,
      "Ġfacilitate": 6788,
      "đă": 6789,
      "AB": 6790,
      "Ġ85": 6791,
      "Ġintellectuelle": 6792,
      "erre": 6793,
      "Ġ?": 6794,
      "Ġmach": 6795,
      "adoption": 6796,
      "Ġchann": 6797,
      "Ġdistance": 6798,
      "Ġinvestments": 6799,
      "ĠDevis": 6800,
      "ĠSaf": 6801,
      "Ġgoal": 6802,
      "Que": 6803,
      "gar": 6804,
      "alif": 6805,
      "Ġfoster": 6806,
      "Europe": 6807,
      "Ġstage": 6808,
      "Ġknown": 6809,
      "ull": 6810,
      "neur": 6811,
      "Ġmaintenir": 6812,
      "Gr": 6813,
      "Ġenvis": 6814,
      "Ġapplicants": 6815,
      "ĠSystem": 6816,
      "iture": 6817,
      "ĠPublishers": 6818,
      "onnement": 6819,
      "Ġterritories": 6820,
      "ĠFÃ©dÃ©ration": 6821,
      "Ġcependant": 6822,
      "Ġoffers": 6823,
      "Ġfonctionnement": 6824,
      "Ġfeature": 6825,
      "Ġinvent": 6826,
      "Ġhors": 6827,
      "ĠConf": 6828,
      "Ġhighly": 6829,
      "ĠUnion": 6830,
      "ĠcrÃ©Ã©": 6831,
      "ĠpublicitÃ©": 6832,
      "ĠIncome": 6833,
      "taine": 6834,
      "ĠcÃ©rÃ©ales": 6835,
      "ĠdÃ©clarÃ©": 6836,
      "onnÃ©es": 6837,
      "Ġproceed": 6838,
      "ĠAud": 6839,
      "MÃªme": 6840,
      "Ġcorporate": 6841,
      "agent": 6842,
      "Reg": 6843,
      "Ġarch": 6844,
      "Ġrecording": 6845,
      "Ġmanagers": 6846,
      "Ġlinks": 6847,
      "quoi": 6848,
      "RM": 6849,
      "lectric": 6850,
      "EX": 6851,
      "Ġbureaux": 6852,
      "ĠGDP": 6853,
      "mselves": 6854,
      "Ġjustif": 6855,
      "ĠPresident": 6856,
      "Ġvoie": 6857,
      "Ġconcentration": 6858,
      "charg": 6859,
      "Ġcultiv": 6860,
      "St": 6861,
      "Ġtouristique": 6862,
      "Ġaudience": 6863,
      "ority": 6864,
      "Ġaurait": 6865,
      "Ġporc": 6866,
      "Ġensuring": 6867,
      "ĠantÃ©rie": 6868,
      "Ġge": 6869,
      "ĠLond": 6870,
      "ĠLTD": 6871,
      "Ġengagement": 6872,
      "ĠInvestment": 6873,
      "Ġlien": 6874,
      "bue": 6875,
      "ĠvÃ©g": 6876,
      "Initiative": 6877,
      "intÃ©gration": 6878,
      "oples": 6879,
      "Ġcarb": 6880,
      "Ġfarms": 6881,
      "Ã©galitÃ©": 6882,
      "Ġjuris": 6883,
      "Ġflex": 6884,
      "Ġadvertising": 6885,
      "Ġthemselves": 6886,
      "retariat": 6887,
      "Ġlonger": 6888,
      "Ġessential": 6889,
      "Ġcitoyens": 6890,
      "Ġpromoting": 6891,
      "UP": 6892,
      "Ġretr": 6893,
      "Ġparts": 6894,
      "Ġmatter": 6895,
      "Ġslight": 6896,
      "ĠtÃ©lÃ©c": 6897,
      "lac": 6898,
      "ĠCost": 6899,
      "Ġmembre": 6900,
      "ĠopÃ©ration": 6901,
      "LES": 6902,
      "Most": 6903,
      "asury": 6904,
      "ĠPO": 6905,
      "ictor": 6906,
      "Ġrepresents": 6907,
      "Ġcibl": 6908,
      "FP": 6909,
      "Ġmode": 6910,
      "Ġmarchand": 6911,
      "Ġjournaux": 6912,
      "ĠNombre": 6913,
      "ĠScience": 6914,
      "ĠrÃ©daction": 6915,
      "Ġtransactions": 6916,
      "Ġfamilles": 6917,
      "pite": 6918,
      "Ġtrend": 6919,
      "Parm": 6920,
      "tez": 6921,
      "Ġlibre": 6922,
      "Ġillustr": 6923,
      "AGE": 6924,
      "Ġsent": 6925,
      "ĠRE": 6926,
      "Ġconstitution": 6927,
      "Ġavez": 6928,
      "aie": 6929,
      "ĠUK": 6930,
      "ĠprÃ©vu": 6931,
      "Ġinnovative": 6932,
      "Ġpermit": 6933,
      "Ġremains": 6934,
      "Ġseule": 6935,
      "rupt": 6936,
      "Ãİle": 6937,
      "ĠexpÃ©ri": 6938,
      "WLRQ": 6939,
      "Ġmu": 6940,
      "Ġpolitical": 6941,
      "UM": 6942,
      "ĠDr": 6943,
      "ĠprÃ©cÃ©dente": 6944,
      "Ġait": 6945,
      "ĠFish": 6946,
      "apter": 6947,
      "illed": 6948,
      "Ġpetite": 6949,
      "anisms": 6950,
      "wise": 6951,
      "prises": 6952,
      "Parmi": 6953,
      "Ġtaking": 6954,
      "ĠFax": 6955,
      "ĠEU": 6956,
      "ĠadÃ©qu": 6957,
      "ĠCommissioner": 6958,
      "ĠcomprÃ©hension": 6959,
      "ĠCMF": 6960,
      "Ġself": 6961,
      "ederation": 6962,
      "Ġhost": 6963,
      "Ġexpansion": 6964,
      "ĠGlob": 6965,
      "Ġneuf": 6966,
      "Ġfaill": 6967,
      "Nom": 6968,
      "Ġadult": 6969,
      "Ġincreasingly": 6970,
      "Ġsais": 6971,
      "Ġsolution": 6972,
      "83": 6973,
      "Ġpersons": 6974,
      "ĠTribunal": 6975,
      "GX": 6976,
      "QUE": 6977,
      "Ġemphas": 6978,
      "800": 6979,
      "Further": 6980,
      "ĠProducts": 6981,
      "ĠBook": 6982,
      "ĠExecutive": 6983,
      "Ġtoo": 6984,
      "ĠTrÃ©sor": 6985,
      "Ġjuridique": 6986,
      "rehensive": 6987,
      "ĠFrancophones": 6988,
      "lephone": 6989,
      "Ġmor": 6990,
      "Ġ44": 6991,
      "Ġitself": 6992,
      "ï¬ģc": 6993,
      "Ġcompl": 6994,
      "ĠChild": 6995,
      "Ġuseful": 6996,
      "ĠOrganiz": 6997,
      "âĢ¨âĢ¨": 6998,
      "tiennent": 6999,
      "Ġacade": 7000,
      "onses": 7001,
      "Ġfonctions": 7002,
      "62": 7003,
      "abord": 7004,
      "Ã«": 7005,
      "ĠrÃ©cemment": 7006,
      "ĠfÃ©": 7007,
      "Ġentrevues": 7008,
      "ĠrÃ©serve": 7009,
      "Ã¨ges": 7010,
      "Ġforward": 7011,
      "ĠnÃ©cessitÃ©": 7012,
      "ĠdestinÃ©s": 7013,
      "Ġundertaken": 7014,
      "agrÃ©": 7015,
      "Ġformer": 7016,
      "Ġindique": 7017,
      "timent": 7018,
      "Ġregistration": 7019,
      "Ġbecom": 7020,
      "ĠprÃ©sentÃ©": 7021,
      "Ġartistiques": 7022,
      "ĠDistribution": 7023,
      "ĠquantitÃ©": 7024,
      "Ã©change": 7025,
      "Ġvar": 7026,
      "Ġcirculation": 7027,
      "approbation": 7028,
      "government": 7029,
      "Ġcra": 7030,
      "ĠParlement": 7031,
      "Ġmodern": 7032,
      "Ġtelle": 7033,
      "asons": 7034,
      "ĠAdministration": 7035,
      "Ġdemeure": 7036,
      "Ġsufficient": 7037,
      "Ġtransmission": 7038,
      "Ġbiotechnolog": 7039,
      "Ġtreatment": 7040,
      "jects": 7041,
      "ĠtÃ©": 7042,
      "ades": 7043,
      "head": 7044,
      "ĠOu": 7045,
      "Ġavantage": 7046,
      "Ġmobil": 7047,
      "ditional": 7048,
      "Ġstatements": 7049,
      "Tr": 7050,
      "Ġpropositions": 7051,
      "production": 7052,
      "ĠsalubritÃ©": 7053,
      "Pre": 7054,
      "ierre": 7055,
      "ĠPublishing": 7056,
      "Ġadvantage": 7057,
      "ĠprotÃ©ger": 7058,
      "TÃ©lÃ©c": 7059,
      "run": 7060,
      "vet": 7061,
      "Ġasked": 7062,
      "ĠApplication": 7063,
      "ATIONS": 7064,
      "igner": 7065,
      "Ġresponsibilities": 7066,
      "ĠFac": 7067,
      "You": 7068,
      "Ġmauvais": 7069,
      "Ġbroadcasting": 7070,
      "aily": 7071,
      "Ġact": 7072,
      "Ġvirtu": 7073,
      "ĠlÃ¢": 7074,
      "Ġstatement": 7075,
      "offrir": 7076,
      "Ġrecently": 7077,
      "ĠclientÃ¨le": 7078,
      "heure": 7079,
      "Ġcomparativement": 7080,
      "ĠDetailed": 7081,
      "uste": 7082,
      "Ġmakes": 7083,
      "Ġequity": 7084,
      "duit": 7085,
      "Ġpresence": 7086,
      "Ġville": 7087,
      "ĠintÃ©g": 7088,
      "Ġbasic": 7089,
      "rigation": 7090,
      "Ġveuillez": 7091,
      "lementary": 7092,
      "ĠChinese": 7093,
      "89": 7094,
      "zen": 7095,
      "iÃ©es": 7096,
      "Ġcritical": 7097,
      "Ġnumbers": 7098,
      "ĠentraÃ®ne": 7099,
      "ĠGovernor": 7100,
      "ĠUniversitÃ©": 7101,
      "Ġconduct": 7102,
      "lent": 7103,
      "Ã©lÃ©br": 7104,
      "erson": 7105,
      "Ġstated": 7106,
      "Ġstructures": 7107,
      "date": 7108,
      "iting": 7109,
      "eci": 7110,
      "anche": 7111,
      "amples": 7112,
      "ĠcoopÃ©ration": 7113,
      "uration": 7114,
      "ĠrÃ©cent": 7115,
      "Ġhighest": 7116,
      "Ġminoritaires": 7117,
      "1998": 7118,
      "Ġsmaller": 7119,
      "Ġpuisque": 7120,
      "Ġici": 7121,
      "Ġanimaux": 7122,
      "ivalent": 7123,
      "Ã©b": 7124,
      "Ġfeel": 7125,
      "Ġderniers": 7126,
      "ĠMusÃ©e": 7127,
      "ĠportÃ©e": 7128,
      "autor": 7129,
      "ternal": 7130,
      "Ġcategory": 7131,
      "ĠrÃ©ussite": 7132,
      "igibility": 7133,
      "Ġcoh": 7134,
      "Ġentire": 7135,
      "Sur": 7136,
      "ĠaoÃ»t": 7137,
      "Ġ67": 7138,
      "Is": 7139,
      "atrice": 7140,
      "Ġinterested": 7141,
      "entrÃ©e": 7142,
      "umÃ©": 7143,
      "Ġformulaire": 7144,
      "ĠIndustrie": 7145,
      "Ġactuel": 7146,
      "Ġfourni": 7147,
      "arb": 7148,
      "ĠHow": 7149,
      "Ġmid": 7150,
      "Ġagroalimentaire": 7151,
      "ĠDÃ©p": 7152,
      "llemagne": 7153,
      "aches": 7154,
      "Ġoperation": 7155,
      "Ġlicences": 7156,
      "Ġobstacles": 7157,
      "otidi": 7158,
      "Ġhaute": 7159,
      "aque": 7160,
      "Ġvia": 7161,
      "ĠIndustries": 7162,
      "accent": 7163,
      "Ġuniversitaires": 7164,
      "Ġincidence": 7165,
      "gments": 7166,
      "Ġcouv": 7167,
      "Ġrelating": 7168,
      "gal": 7169,
      "ipp": 7170,
      "Ġstar": 7171,
      "ĠAB": 7172,
      "Ġvac": 7173,
      "Ġtouristiques": 7174,
      "Ġmodification": 7175,
      "Ġmanufacturing": 7176,
      "54": 7177,
      "Ġprend": 7178,
      "ĠÃ©lectroniques": 7179,
      "Ġexamine": 7180,
      "Language": 7181,
      "missibilitÃ©": 7182,
      "ACT": 7183,
      "Ġministres": 7184,
      "Ġexperts": 7185,
      "Ġoffices": 7186,
      "amment": 7187,
      "Ġcont": 7188,
      "hiver": 7189,
      "oise": 7190,
      "ĠÃ©tro": 7191,
      "Ġmodels": 7192,
      "Ġproposal": 7193,
      "Ġauthority": 7194,
      "84": 7195,
      "ising": 7196,
      "raux": 7197,
      "ĠactivitÃ©": 7198,
      "Ġpopulations": 7199,
      "istant": 7200,
      "Ġinformants": 7201,
      "ĠSecretariat": 7202,
      "cont": 7203,
      "Ġreti": 7204,
      "ferences": 7205,
      "Åĵuvre": 7206,
      "ĠAsia": 7207,
      "Ġphotograph": 7208,
      "ouss": 7209,
      "Ġsymb": 7210,
      "Ã©nerg": 7211,
      "Ġprofessionnel": 7212,
      "orage": 7213,
      "ĠSingap": 7214,
      "isson": 7215,
      "importation": 7216,
      "initiative": 7217,
      "Ġethnic": 7218,
      "ysical": 7219,
      "Ġscolaires": 7220,
      "ĠrÃ©col": 7221,
      "Figure": 7222,
      "Ġsuperfic": 7223,
      "Ġgrants": 7224,
      "Ġdebt": 7225,
      "atta": 7226,
      "atell": 7227,
      "Ġclari": 7228,
      "ĠTerritories": 7229,
      "Ġhabituellement": 7230,
      "Ġmechanisms": 7231,
      "ducing": 7232,
      "Environ": 7233,
      "ĠCrown": 7234,
      "Ġphysi": 7235,
      "ĠmÃªmes": 7236,
      "Ġannivers": 7237,
      "Ġdiversif": 7238,
      "Ġliving": 7239,
      "ĠTOTAL": 7240,
      "profit": 7241,
      "Ġcopy": 7242,
      "ĠCommunities": 7243,
      "Ġlat": 7244,
      "Ġregular": 7245,
      "Ġimprim": 7246,
      "Ġobtenu": 7247,
      "Ġpetits": 7248,
      "ĠSocial": 7249,
      "ĠTelevision": 7250,
      "Ġonce": 7251,
      "ordre": 7252,
      "Ġsusceptibles": 7253,
      "Ġexcell": 7254,
      "ĠImmigration": 7255,
      "ĠCTC": 7256,
      "Ġproper": 7257,
      "dure": 7258,
      "ĠRessources": 7259,
      "PDF": 7260,
      "ention": 7261,
      "Ġmeat": 7262,
      "Ġmanner": 7263,
      "ĠRecherche": 7264,
      "Ġmechan": 7265,
      "ĠRussi": 7266,
      "ĠdÃ©velopper": 7267,
      "Ġcovered": 7268,
      "@@@@@@@@": 7269,
      "Ġartistique": 7270,
      "Ġrapide": 7271,
      "dessous": 7272,
      "Ġ57": 7273,
      "ĠPerformance": 7274,
      "ĠIdenti": 7275,
      "uctu": 7276,
      "ubs": 7277,
      "rez": 7278,
      "ĠSystems": 7279,
      "Ġsustainable": 7280,
      "vue": 7281,
      "urÃ©": 7282,
      "ray": 7283,
      "oultry": 7284,
      "ĠCollege": 7285,
      "Ġ'": 7286,
      "Ġlesquels": 7287,
      "Ġviande": 7288,
      "ĠMA": 7289,
      "ĠdÃ©pÃ´t": 7290,
      "Ġoccasions": 7291,
      "dra": 7292,
      "ony": 7293,
      "Ġrise": 7294,
      "Ġexploitations": 7295,
      "rice": 7296,
      "ĠAgence": 7297,
      "ĠSecret": 7298,
      "Ġdam": 7299,
      "Ġcelebr": 7300,
      "Ġcourses": 7301,
      "ĠDesign": 7302,
      "Ġparagraph": 7303,
      "ĠEnvironmental": 7304,
      "NG": 7305,
      "Ġoptim": 7306,
      "Ġfi": 7307,
      "tination": 7308,
      "ĠPatent": 7309,
      "Ġwhose": 7310,
      "Ġtrends": 7311,
      "airy": 7312,
      "Ġcommitted": 7313,
      "Ġannounced": 7314,
      "Ġcentrale": 7315,
      "ef": 7316,
      "Ġclose": 7317,
      "Ġraisons": 7318,
      "clos": 7319,
      "ĠamÃ©ricain": 7320,
      "National": 7321,
      "OH": 7322,
      "trice": 7323,
      "Ġjournal": 7324,
      "ictoria": 7325,
      "hol": 7326,
      "ommand": 7327,
      "ĠVersion": 7328,
      "Ġvariables": 7329,
      "ĠGrain": 7330,
      "Ġperfectionnement": 7331,
      "Ġensuite": 7332,
      "islative": 7333,
      "ĠprÃ©occupations": 7334,
      "ll": 7335,
      "ĠCri": 7336,
      "urg": 7337,
      "ĠPacific": 7338,
      "Ġpresque": 7339,
      "Ã©nergie": 7340,
      "Ġincorpor": 7341,
      "ĠeuropÃ©enne": 7342,
      "illers": 7343,
      "ĠNorthwest": 7344,
      "HER": 7345,
      "Ã©valu": 7346,
      "ĠCli": 7347,
      "Ġnord": 7348,
      "Ġmeilleur": 7349,
      "Ġtard": 7350,
      "Ġwid": 7351,
      "ulty": 7352,
      "Ġsonore": 7353,
      "side": 7354,
      "ĠrÃ©ussi": 7355,
      "Ġfollowed": 7356,
      "Ġgovernance": 7357,
      "gs": 7358,
      "Ġidentity": 7359,
      "96": 7360,
      "ĠHong": 7361,
      "Ġmultim": 7362,
      "mun": 7363,
      "Ġold": 7364,
      "Ġcommand": 7365,
      "Ġutil": 7366,
      "CON": 7367,
      "Ġintegrated": 7368,
      "gre": 7369,
      "ĠprÃ©paration": 7370,
      "Ġpersonnels": 7371,
      "incidence": 7372,
      "isk": 7373,
      "Ġenergy": 7374,
      "ĠbÃ¢": 7375,
      "Ġvisite": 7376,
      "ĠCCT": 7377,
      "Ġheures": 7378,
      "Ġtransf": 7379,
      "IRAP": 7380,
      "Ġaccountability": 7381,
      "ĠSearch": 7382,
      "Ġgains": 7383,
      "ĠEntre": 7384,
      "Ġnation": 7385,
      "Ġparty": 7386,
      "ered": 7387,
      "Ġassig": 7388,
      "endor": 7389,
      "Ġshared": 7390,
      "Ġoffert": 7391,
      "Ġcontinuer": 7392,
      "Ġsuggested": 7393,
      "ĠFl": 7394,
      "ĠvisÃ©s": 7395,
      "ĠassociÃ©s": 7396,
      "Ġovers": 7397,
      "ĠSP": 7398,
      "illage": 7399,
      "ITY": 7400,
      "Ġfamilies": 7401,
      "ĠSafety": 7402,
      "autom": 7403,
      "afood": 7404,
      "Ġrefus": 7405,
      "ĠTechn": 7406,
      "alifax": 7407,
      "eliers": 7408,
      "Ġcomprehensive": 7409,
      "ĠRÃ©seau": 7410,
      "ert": 7411,
      "ĠSw": 7412,
      "uccess": 7413,
      "ental": 7414,
      "tenue": 7415,
      "ĠKong": 7416,
      "Ġled": 7417,
      "tary": 7418,
      "ape": 7419,
      "Ġconclu": 7420,
      "Ġexige": 7421,
      "agers": 7422,
      "Ġrepresentative": 7423,
      "Ġcatal": 7424,
      "fol": 7425,
      "ĠcompÃ©t": 7426,
      "ĠVol": 7427,
      "ĠFondation": 7428,
      "ĠcinÃ©mat": 7429,
      "Ãªtes": 7430,
      "ĠRÃ¨glement": 7431,
      "Business": 7432,
      "ĠMicha": 7433,
      "RÃ©s": 7434,
      "Ġreference": 7435,
      "Ġconvention": 7436,
      "AmÃ©rique": 7437,
      "ĠGermany": 7438,
      "urch": 7439,
      "Ġreduction": 7440,
      "lections": 7441,
      "Particip": 7442,
      "infrastructure": 7443,
      "Ġdouble": 7444,
      "Ġnetworks": 7445,
      "Ġselected": 7446,
      "Ġcru": 7447,
      "ĠSMEs": 7448,
      "ĠFR": 7449,
      "ĠKore": 7450,
      "Ġefficaces": 7451,
      "Ġmonetary": 7452,
      "Ġstabil": 7453,
      "International": 7454,
      "oriaux": 7455,
      "Ġsomme": 7456,
      "Ġadvis": 7457,
      "ĠMinistry": 7458,
      "Ġabs": 7459,
      "do": 7460,
      "Ġstations": 7461,
      "Ġcross": 7462,
      "Col": 7463,
      "orde": 7464,
      "Ġjam": 7465,
      "Ġpatent": 7466,
      "ĠShe": 7467,
      "immigration": 7468,
      "indi": 7469,
      "agine": 7470,
      "Ġconsultatif": 7471,
      "alimentation": 7472,
      "AAC": 7473,
      "EA": 7474,
      "Ġsubsection": 7475,
      "ĠStatus": 7476,
      "ĠdegrÃ©": 7477,
      "Ġchain": 7478,
      "Ġfee": 7479,
      "Ġeffectively": 7480,
      "Ġexperiences": 7481,
      "Ġuniquement": 7482,
      "Å½": 7483,
      "univers": 7484,
      "Ġalways": 7485,
      "Ġtirer": 7486,
      "expansion": 7487,
      "Ġfelt": 7488,
      "Ġenvoy": 7489,
      "essional": 7490,
      "forme": 7491,
      "Ġequal": 7492,
      "attend": 7493,
      "ĠSecrÃ©tariat": 7494,
      "effet": 7495,
      "Our": 7496,
      "Ġamp": 7497,
      "ached": 7498,
      "pt": 7499,
      "ĠDem": 7500,
      "cton": 7501,
      "ĠChambre": 7502,
      "Ġexpressed": 7503,
      "Ġdim": 7504,
      "ĠVendor": 7505,
      "veur": 7506,
      "ĠAppro": 7507,
      "Ġcollecte": 7508,
      "exposition": 7509,
      "Ġanglaise": 7510,
      "titul": 7511,
      "ĠscÃ©n": 7512,
      "Ġmethods": 7513,
      "Ġmesurer": 7514,
      "Ġtenue": 7515,
      "Ġratio": 7516,
      "ĠDavid": 7517,
      "Ġissued": 7518,
      "Ġexportateurs": 7519,
      "ĠStrategy": 7520,
      "Ġbiologiques": 7521,
      "Ġcategories": 7522,
      "Ġworth": 7523,
      "mbers": 7524,
      "Ġfondament": 7525,
      "heat": 7526,
      "Ġmises": 7527,
      "Ġthus": 7528,
      "Ġordin": 7529,
      "ĠSUR": 7530,
      "overy": 7531,
      "Ġconjoin": 7532,
      "Ġincid": 7533,
      "ĠRiver": 7534,
      "Ġdiri": 7535,
      "ĠBill": 7536,
      "Ġrecru": 7537,
      "Ã¯s": 7538,
      "Ġallows": 7539,
      "ĠDÃ©tail": 7540,
      "ineering": 7541,
      "Ġ1980": 7542,
      "Ġcalled": 7543,
      "ĠInstruments": 7544,
      "%).": 7545,
      "Ġden": 7546,
      "ns": 7547,
      "Ġatta": 7548,
      "Ġcompagnies": 7549,
      "diction": 7550,
      "ributions": 7551,
      "Ġearlier": 7552,
      "Ġmuseums": 7553,
      "ints": 7554,
      "col": 7555,
      "esures": 7556,
      "Ġenvers": 7557,
      "Ġdossier": 7558,
      "ĠTreasury": 7559,
      "Ġcontributed": 7560,
      "Ġsay": 7561,
      "Ġmouve": 7562,
      "Ġhard": 7563,
      "Ġforces": 7564,
      "Ġpayer": 7565,
      "Ġpostes": 7566,
      "ĠPrime": 7567,
      "lets": 7568,
      "ĠmÃ©tra": 7569,
      "agrÃ©ment": 7570,
      "ĠdÃ¢": 7571,
      "essor": 7572,
      "Ġoperators": 7573,
      "Ġgaz": 7574,
      "Ġincen": 7575,
      "819": 7576,
      "aliments": 7577,
      "Ġlater": 7578,
      "Ġrecommended": 7579,
      "ĠBrÃ©sil": 7580,
      "ĠTO": 7581,
      "ĠEng": 7582,
      "ĠcapacitÃ©s": 7583,
      "Ġaddressed": 7584,
      "Ġexplain": 7585,
      "iam": 7586,
      "exist": 7587,
      "Office": 7588,
      "Ġprinciples": 7589,
      "ĠdÃ©lai": 7590,
      "nance": 7591,
      "ĠExhib": 7592,
      "IPO": 7593,
      "ĠBroadcasting": 7594,
      "Ġdetermined": 7595,
      "Ġexpositions": 7596,
      "Ġresearchers": 7597,
      "mely": 7598,
      "Ġnear": 7599,
      "Ġimported": 7600,
      "Ġsense": 7601,
      "Ġvu": 7602,
      "ĠRevenue": 7603,
      "ĠCoordin": 7604,
      "ĠpÃ¢": 7605,
      "Ġrich": 7606,
      "Ġloan": 7607,
      "Ġdistributeurs": 7608,
      "pch": 7609,
      "Ġdifferences": 7610,
      "86": 7611,
      "Ġinterpre": 7612,
      "Ġaccounts": 7613,
      "titudes": 7614,
      "Ġsignif": 7615,
      "Ġscope": 7616,
      "ĠPE": 7617,
      "plus": 7618,
      "Ġchacune": 7619,
      "Lab": 7620,
      "oid": 7621,
      "ĠnÃ©gociations": 7622,
      "Ġtook": 7623,
      "Ġconcep": 7624,
      "ittees": 7625,
      "Ġdemander": 7626,
      "Ġquotidi": 7627,
      "ĠAG": 7628,
      "Ġharmon": 7629,
      "ĠMaj": 7630,
      "ĠrÃ©sultat": 7631,
      "Ġpartage": 7632,
      "ĠdemandÃ©": 7633,
      "ĠAdvisory": 7634,
      "Ġshown": 7635,
      "URS": 7636,
      "Ġethnoculture": 7637,
      "Ġvarie": 7638,
      "Ġintitul": 7639,
      "ĠSk": 7640,
      "Ġamounts": 7641,
      "Ġglobale": 7642,
      "Ġchallenge": 7643,
      "ĠProtection": 7644,
      "lecommunications": 7645,
      "Ġdefinition": 7646,
      "Ġusually": 7647,
      "Tous": 7648,
      "Ġfort": 7649,
      "Mal": 7650,
      "ĠAre": 7651,
      "Ġsujets": 7652,
      "Ġsoumis": 7653,
      "57": 7654,
      "hait": 7655,
      "Ġnette": 7656,
      "Ġalternative": 7657,
      "ĠRÃ©g": 7658,
      "Ġdram": 7659,
      "puts": 7660,
      "Ġfro": 7661,
      "Ġinstru": 7662,
      "Ġreflec": 7663,
      "FORM": 7664,
      "WKH": 7665,
      "Ġcore": 7666,
      "Ġrequirement": 7667,
      "ĠHelp": 7668,
      "Ġdele": 7669,
      "ĠAS": 7670,
      "moins": 7671,
      "Ġanaly": 7672,
      "ĠCCB": 7673,
      "tier": 7674,
      "Ġvilles": 7675,
      "marks": 7676,
      "Ġfaibles": 7677,
      "ultats": 7678,
      "Ġlimite": 7679,
      "Ġpesticides": 7680,
      "IF": 7681,
      "Ġcouverture": 7682,
      "Industrie": 7683,
      "Ġveget": 7684,
      "roalimentaires": 7685,
      "Ġdiminution": 7686,
      "Ġdistinct": 7687,
      "Ġsell": 7688,
      "ĠMeeting": 7689,
      "ford": 7690,
      "Ġpositions": 7691,
      "ĠSites": 7692,
      "Ġchin": 7693,
      "Ġagroalimentaires": 7694,
      "ĠÃ©laborer": 7695,
      "Ġpurchase": 7696,
      "%),": 7697,
      "Ġbourses": 7698,
      "ĠcaractÃ¨re": 7699,
      "Ġproposals": 7700,
      "ĠdifficultÃ©s": 7701,
      "ĠÃ©nonc": 7702,
      "Ġtest": 7703,
      "Ġreques": 7704,
      "Ã©tait": 7705,
      "Ġgreen": 7706,
      "ESS": 7707,
      "Ġtalent": 7708,
      "52": 7709,
      "Ġ________________________________": 7710,
      "uality": 7711,
      "ĠutilisÃ©es": 7712,
      "ĠmaÃ¯s": 7713,
      "Ġconsideration": 7714,
      "Ġbehalf": 7715,
      "Ġauthors": 7716,
      "ĠpÃ©": 7717,
      "Ġcomplet": 7718,
      "Ġcarried": 7719,
      "emb": 7720,
      "cession": 7721,
      "ĠLo": 7722,
      "ĠpubliÃ©": 7723,
      "crit": 7724,
      "Ġtent": 7725,
      "ĠcÃ©lÃ©br": 7726,
      "cier": 7727,
      "Ġindustrial": 7728,
      "OG": 7729,
      "Ġtargeted": 7730,
      "ÃĪ": 7731,
      "ĠParties": 7732,
      "Ġwritten": 7733,
      "Ġ%).": 7734,
      "ĠLead": 7735,
      "ĠArgen": 7736,
      "atrimon": 7737,
      "ĠStrategic": 7738,
      "ĠRenseignements": 7739,
      "ĠcomplÃ¨te": 7740,
      "Ġspons": 7741,
      "ĠrÃ©glement": 7742,
      "Ġvolets": 7743,
      "ĠSus": 7744,
      "ĠcomitÃ©s": 7745,
      "tables": 7746,
      "essment": 7747,
      "WH": 7748,
      "ompl": 7749,
      "ĠSantÃ©": 7750,
      "stances": 7751,
      "inspection": 7752,
      "Ġindiquent": 7753,
      "Sh": 7754,
      "ĠAuthor": 7755,
      "Vo": 7756,
      "ĠSo": 7757,
      "Ġagency": 7758,
      "Ġentit": 7759,
      "more": 7760,
      "ĠrÃ©gionale": 7761,
      "ĠÃ©tats": 7762,
      "ĠÃ©larg": 7763,
      "ĠData": 7764,
      "oirs": 7765,
      "Ġrecognize": 7766,
      "rief": 7767,
      "Ġjamais": 7768,
      "Car": 7769,
      "Ġmicro": 7770,
      "ĠDef": 7771,
      "ĠTraining": 7772,
      "ĠPC": 7773,
      "ĠrÃ©el": 7774,
      "Ġvalid": 7775,
      "Ġsemaine": 7776,
      "Ġmatern": 7777,
      "Ġcreating": 7778,
      "ĠÃ©chÃ©": 7779,
      "ĠBal": 7780,
      "Ġmarg": 7781,
      "ĠtÃ©lÃ©communications": 7782,
      "Ġbeginning": 7783,
      "ja": 7784,
      "erner": 7785,
      "But": 7786,
      "ican": 7787,
      "Ġlaiti": 7788,
      "ĠaccordÃ©": 7789,
      "Ġimproving": 7790,
      "Ġrun": 7791,
      "Ġinterro": 7792,
      "Ġextr": 7793,
      "Entre": 7794,
      "ERV": 7795,
      "ĠÃ©lÃ©ment": 7796,
      "Ġpasser": 7797,
      "Ġwish": 7798,
      "ĠexpÃ©rience": 7799,
      "Ġkg": 7800,
      "Ġlocated": 7801,
      "Ġlearn": 7802,
      "Ġmanifestations": 7803,
      "Ġchim": 7804,
      "Ġimporte": 7805,
      "'t": 7806,
      "Ġrecevoir": 7807,
      "ype": 7808,
      "rite": 7809,
      "ĠDo": 7810,
      "ĠAssoci": 7811,
      "ĠOverview": 7812,
      "Ã¢ge": 7813,
      "ĠintÃ©rÃªt": 7814,
      "Ġinvolvement": 7815,
      "Ġteaching": 7816,
      "ĠInitiatives": 7817,
      "Ġarrangements": 7818,
      "orti": 7819,
      "Ġhighl": 7820,
      "Ġpremiers": 7821,
      "Ġdatabase": 7822,
      "Ġrepresented": 7823,
      "ĠDirectorate": 7824,
      "Institut": 7825,
      "Ġracial": 7826,
      "Ġbrevet": 7827,
      "Ġdiscussed": 7828,
      "territorial": 7829,
      "Ġseparate": 7830,
      "TML": 7831,
      "Ġmotiv": 7832,
      "utation": 7833,
      "ĠCommon": 7834,
      "ĠMinistre": 7835,
      "Ġsupermar": 7836,
      "ĠsÃ©nateur": 7837,
      "site": 7838,
      "ĠFinance": 7839,
      "ĠGallery": 7840,
      "Ġconcerning": 7841,
      "Ġcorn": 7842,
      "ĠmÃ©canisme": 7843,
      "Ġgross": 7844,
      "Ã©tudi": 7845,
      "Ġreasons": 7846,
      "ĠâĢĺ": 7847,
      "Ã©quitÃ©": 7848,
      "Ġder": 7849,
      "ĠStudies": 7850,
      "Ġnomm": 7851,
      "sewhere": 7852,
      "prise": 7853,
      "Ġrepresenting": 7854,
      "ĠlittÃ©": 7855,
      "Ġaudiences": 7856,
      "Ġsouhait": 7857,
      "Ġscale": 7858,
      "ĠeffectuÃ©": 7859,
      "ĠDiversity": 7860,
      "Ġcommission": 7861,
      "tivities": 7862,
      "Ġurban": 7863,
      "amental": 7864,
      "Ġestime": 7865,
      "servation": 7866,
      "ĠnÃ©goci": 7867,
      "**": 7868,
      "Commun": 7869,
      "Government": 7870,
      "Ġdisease": 7871,
      "Ġtravellers": 7872,
      "Ġrestrictions": 7873,
      "Ġtoward": 7874,
      "Ã¨tres": 7875,
      "Ġrest": 7876,
      "intÃ©rieur": 7877,
      "Ġaware": 7878,
      "Ġscientifique": 7879,
      "Ġappre": 7880,
      "Ġguarante": 7881,
      "Ġjuridiques": 7882,
      "Ġ54": 7883,
      "ĠrÃ©ponses": 7884,
      "ĠÃ©tablis": 7885,
      "ĠprÃ©vue": 7886,
      "atellite": 7887,
      "Ġ77": 7888,
      "Ġ800": 7889,
      "Ġprovinciales": 7890,
      "ĠLES": 7891,
      "Ġpublish": 7892,
      "ĠMonitor": 7893,
      "Ġrespecter": 7894,
      "Ġadmissible": 7895,
      "Ġsituations": 7896,
      "XU": 7897,
      "prÃ©tation": 7898,
      "Ġ250": 7899,
      "Ġaccur": 7900,
      "Ġpropose": 7901,
      "Ġchos": 7902,
      "Ġappui": 7903,
      "Ġutile": 7904,
      "Ġforum": 7905,
      "Ġnotes": 7906,
      "Ã©tat": 7907,
      "ĠdiminuÃ©": 7908,
      "Ġmarchandises": 7909,
      "ĠpÃ©n": 7910,
      "ĠutilisÃ©e": 7911,
      "Ġregulatory": 7912,
      "mement": 7913,
      "tiers": 7914,
      "Ġslightly": 7915,
      "tations": 7916,
      "akers": 7917,
      "ĠVictoria": 7918,
      "spe": 7919,
      "Ġ150": 7920,
      "Ġliquid": 7921,
      "utÃ©": 7922,
      "Ã©lev": 7923,
      "Ġpension": 7924,
      "Ġobtained": 7925,
      "Ġrecords": 7926,
      "Ġexaminer": 7927,
      "ĠbÃ©nÃ©voles": 7928,
      "ĠRES": 7929,
      "Ġlivestock": 7930,
      "ĠEnvironment": 7931,
      "Ġcertified": 7932,
      "ĠdiffÃ©rences": 7933,
      "adres": 7934,
      "ĠWith": 7935,
      "lementing": 7936,
      "tific": 7937,
      "Ġprovinciale": 7938,
      "tacle": 7939,
      "Of": 7940,
      "Tableau": 7941,
      "applique": 7942,
      "ousing": 7943,
      "ricul": 7944,
      "ĠProgrammes": 7945,
      "ĠStandards": 7946,
      "Ġreform": 7947,
      "Ġ01": 7948,
      "ĠGl": 7949,
      "Ġadvice": 7950,
      "ĠCOMM": 7951,
      "ĠDan": 7952,
      "ativ": 7953,
      "onds": 7954,
      "Ġcolle": 7955,
      "Ġtient": 7956,
      "Ġprotect": 7957,
      "Ġlieux": 7958,
      "Ġconference": 7959,
      "Ġofficials": 7960,
      "uck": 7961,
      "Ġrurales": 7962,
      "Ġaven": 7963,
      "Ġofficers": 7964,
      "ĠExper": 7965,
      "Ġintegration": 7966,
      "dessus": 7967,
      "fiques": 7968,
      "auche": 7969,
      "Ġsegments": 7970,
      "81": 7971,
      "cie": 7972,
      "Ġ46": 7973,
      "exemp": 7974,
      "ĠprioritÃ©": 7975,
      "iring": 7976,
      "umber": 7977,
      "Ġreceip": 7978,
      "Ġassez": 7979,
      "Ġclasse": 7980,
      "crits": 7981,
      "Ġlight": 7982,
      "aider": 7983,
      "Ġsoy": 7984,
      "NA": 7985,
      "ĠAcadian": 7986,
      "Ġaccompl": 7987,
      "Ġgouvernementales": 7988,
      "Ġotherwise": 7989,
      "Ġappears": 7990,
      "Ġamb": 7991,
      "ĠTÃ©lÃ©phone": 7992,
      "PrÃ©": 7993,
      "Ġaccommod": 7994,
      "ĠCourriel": 7995,
      "Ġhistorique": 7996,
      "impact": 7997,
      "Ġprochaines": 7998,
      "Ter": 7999,
      "ĠDom": 8000,
      "Ġargu": 8001,
      "ĠFOR": 8002,
      "Ġdemandeurs": 8003,
      "ĠAbout": 8004,
      "admissibilitÃ©": 8005,
      "Home": 8006,
      "Ġcompter": 8007,
      "Ġpasse": 8008,
      "Ġreviewed": 8009,
      "dis": 8010,
      "Ġtrips": 8011,
      "Ġtravailleurs": 8012,
      "habit": 8013,
      "Inde": 8014,
      "Contact": 8015,
      "Ġtarge": 8016,
      "duire": 8017,
      "osting": 8018,
      "Ġconclusion": 8019,
      "ĠPromotion": 8020,
      "ĠprocÃ©": 8021,
      "PAR": 8022,
      "ECT": 8023,
      "tiliz": 8024,
      "istan": 8025,
      "Ġvisibles": 8026,
      "Ġcertaine": 8027,
      "roits": 8028,
      "atoires": 8029,
      "ĠfondÃ©e": 8030,
      "Ġrig": 8031,
      "ĠFil": 8032,
      "tenues": 8033,
      "Ġuses": 8034,
      "ĠDocument": 8035,
      "Ġcircumstances": 8036,
      "nrc": 8037,
      "Ġpuisse": 8038,
      "Ġrisks": 8039,
      "ommages": 8040,
      "Ġ51": 8041,
      "ĠgÃ©nÃ©raux": 8042,
      "ĠDÃ©penses": 8043,
      "related": 8044,
      "absence": 8045,
      "ĠprocÃ©dure": 8046,
      "cting": 8047,
      "Ġspace": 8048,
      "Ġlocale": 8049,
      "ĠtÃ©lÃ©vis": 8050,
      "Ġaient": 8051,
      "roissement": 8052,
      "Ġimprovement": 8053,
      "Ġencourager": 8054,
      "Ġhyd": 8055,
      "Ġpuissent": 8056,
      "Ġexpectations": 8057,
      "yond": 8058,
      "Ġformal": 8059,
      "Ġadjust": 8060,
      "ĠAAC": 8061,
      "Ġseason": 8062,
      "inions": 8063,
      "Ġcontient": 8064,
      "ĠLANG": 8065,
      "Ġtransportation": 8066,
      "ilibre": 8067,
      "ĠCWB": 8068,
      "Ġyet": 8069,
      "Ġtariff": 8070,
      "ĠPor": 8071,
      "enser": 8072,
      "1997": 8073,
      "ĠPrÃ©sident": 8074,
      "ommendation": 8075,
      "59": 8076,
      "Ġtarif": 8077,
      "uded": 8078,
      "Ġgouvernance": 8079,
      "Ġdepartmental": 8080,
      "ĠMinisters": 8081,
      "Ġpatrimon": 8082,
      "Ġinï¬Ĥation": 8083,
      "ĠFamily": 8084,
      "riting": 8085,
      "ministr": 8086,
      "Ġprincipe": 8087,
      "Ġminorities": 8088,
      "Ġadopted": 8089,
      "pportunities": 8090,
      "UTION": 8091,
      "Ġlac": 8092,
      "organismes": 8093,
      "Ġnegative": 8094,
      "Ġeau": 8095,
      "isations": 8096,
      "ĠpremiÃ¨res": 8097,
      "Ġapproaches": 8098,
      "Ġclaims": 8099,
      "acquisition": 8100,
      "Ġhours": 8101,
      "thing": 8102,
      "ĠMor": 8103,
      "Ġexemplaires": 8104,
      "ĠFigure": 8105,
      "tiste": 8106,
      "Ġfactor": 8107,
      "Mont": 8108,
      "quÃ©es": 8109,
      "chent": 8110,
      "Ġcompagnie": 8111,
      "51": 8112,
      "ĠSou": 8113,
      "ĠBre": 8114,
      "Ġcampaign": 8115,
      "atÃ©r": 8116,
      "ĠlÃł": 8117,
      "Ġaward": 8118,
      "Ġanalyses": 8119,
      "ĠIndustrial": 8120,
      "Ġsenti": 8121,
      "ĠrÃ©mun": 8122,
      "ĠInd": 8123,
      "Ġabord": 8124,
      "ĠprivÃ©e": 8125,
      "ĠCirc": 8126,
      "Ġbeyond": 8127,
      "Ġfresh": 8128,
      "mpt": 8129,
      "ĠManufact": 8130,
      "Ġaffected": 8131,
      "atin": 8132,
      "ĠdÃ»": 8133,
      "ancer": 8134,
      "ĠCapital": 8135,
      "andon": 8136,
      "Ġquand": 8137,
      "ĠIssues": 8138,
      "Ġtransp": 8139,
      "Ġsubse": 8140,
      "Ġfollows": 8141,
      "isure": 8142,
      "ĠbÃ©nÃ©ficiaire": 8143,
      "Ġbarriers": 8144,
      "ĠgÃ©n": 8145,
      "Ġlibraries": 8146,
      "Ġconcert": 8147,
      "ĠSi": 8148,
      "Ġessentiel": 8149,
      "Ġtarifs": 8150,
      "ift": 8151,
      "rimer": 8152,
      "Ġexprim": 8153,
      "ĠproductivitÃ©": 8154,
      "Ġmeasurement": 8155,
      "Ġfutures": 8156,
      "Ã©hic": 8157,
      "Ġcopie": 8158,
      "Ġownership": 8159,
      "ĠSecond": 8160,
      "Ġsett": 8161,
      "Ġinternal": 8162,
      "Elles": 8163,
      "Ġlate": 8164,
      "Ġattri": 8165,
      "Ġarriv": 8166,
      "Ġindustriels": 8167,
      "Ġfournis": 8168,
      "Ġjuste": 8169,
      "Ġlesquelles": 8170,
      "Ġvendre": 8171,
      "ĠNous": 8172,
      "Ġpoll": 8173,
      "Ġschol": 8174,
      "Ġcode": 8175,
      "Ġdetails": 8176,
      "Ġtonne": 8177,
      "Ġsilos": 8178,
      "That": 8179,
      "ĠmentionnÃ©": 8180,
      "Ġzones": 8181,
      "Ġfamiliale": 8182,
      "orientation": 8183,
      "ĠpiÃ¨ces": 8184,
      "anim": 8185,
      "usement": 8186,
      "Ġquick": 8187,
      "ĠÃ©duc": 8188,
      "Ġresulting": 8189,
      "Ġkind": 8190,
      "Ġsuivre": 8191,
      "ĠdÃ©cenn": 8192,
      "ĠMoncton": 8193,
      "Ġraised": 8194,
      "Ġflow": 8195,
      "ĠWorks": 8196,
      "Programme": 8197,
      "Cet": 8198,
      "mÃ©s": 8199,
      "Ġchiffres": 8200,
      "Ġclassi": 8201,
      "ĠOfficer": 8202,
      "Ã¨ces": 8203,
      "ĠsupÃ©rieure": 8204,
      "ĠAUCC": 8205,
      "ĠDestination": 8206,
      "puty": 8207,
      "Ġtouchant": 8208,
      "ĠStudy": 8209,
      "Ġformes": 8210,
      "ĠInde": 8211,
      "ADI": 8212,
      "ĠrÃ©ception": 8213,
      "ĠAfrica": 8214,
      "ĠprÃ©visions": 8215,
      "Ġmessage": 8216,
      "ĠÃ©laborÃ©": 8217,
      "Ġpourquoi": 8218,
      "ĠprÃ©sentent": 8219,
      "ĠnumÃ©riques": 8220,
      "rements": 8221,
      "ĠLabor": 8222,
      "Ġmaintenance": 8223,
      "Ġoutput": 8224,
      "ĠCompe": 8225,
      "ĠConsulting": 8226,
      "ĠsÃ»": 8227,
      "Ġexter": 8228,
      "Ġsept": 8229,
      "canada": 8230,
      "Ġegg": 8231,
      "EST": 8232,
      "Ġbudg": 8233,
      "ĠÃ©levÃ©e": 8234,
      "Ġcoup": 8235,
      "ĠrÃ©unions": 8236,
      "Ġcorporations": 8237,
      "tina": 8238,
      "ĠHer": 8239,
      "Ġprofile": 8240,
      "Ġcomputer": 8241,
      "ĠDÃ©f": 8242,
      "Ġaccept": 8243,
      "Ġdelivered": 8244,
      "PRO": 8245,
      "ĠHays": 8246,
      "ellow": 8247,
      "bour": 8248,
      "ĠMill": 8249,
      "ĠOnline": 8250,
      "Please": 8251,
      "ker": 8252,
      "yle": 8253,
      "ush": 8254,
      "Ġtotales": 8255,
      "Ġgraph": 8256,
      "Ġcontribue": 8257,
      "tip": 8258,
      "ext": 8259,
      "ANT": 8260,
      "Ġprobablement": 8261,
      "Ġremplac": 8262,
      "ĠDefence": 8263,
      "Ġwhy": 8264,
      "Ġquestionnaire": 8265,
      "Ġengagements": 8266,
      "Ġpertes": 8267,
      "ĠUp": 8268,
      "Ġfrancophonie": 8269,
      "ĠdÃ©claration": 8270,
      "Ġsud": 8271,
      "Ġmainly": 8272,
      "Ġtempor": 8273,
      "79": 8274,
      "From": 8275,
      "ran": 8276,
      "Ġ53": 8277,
      "Ġstates": 8278,
      "Ġeffectiveness": 8279,
      "Under": 8280,
      "Ġcreative": 8281,
      "ĠThere": 8282,
      "Ġattract": 8283,
      "Ġanci": 8284,
      "aise": 8285,
      "ĠÃ©tablissement": 8286,
      "Ġpetit": 8287,
      "Ġestablishment": 8288,
      "nous": 8289,
      "itations": 8290,
      "Ġvul": 8291,
      "inform": 8292,
      "Ġtw": 8293,
      "Ġcell": 8294,
      "ĠLocation": 8295,
      "ĠGuid": 8296,
      "ĠrÃ©partition": 8297,
      "ĠexÃ©cu": 8298,
      "ĠenregistrÃ©": 8299,
      "ĠconfÃ©rence": 8300,
      "Ġparam": 8301,
      "obile": 8302,
      "73": 8303,
      "WR": 8304,
      "Ġselection": 8305,
      "Ġreferred": 8306,
      "oted": 8307,
      "Ġbiais": 8308,
      "PL": 8309,
      "Ġmodifier": 8310,
      "Ġnor": 8311,
      "ĠCountry": 8312,
      "ĠexpÃ©riences": 8313,
      "Ġcontacts": 8314,
      "excellence": 8315,
      "Ġoffrant": 8316,
      "Ġprivil": 8317,
      "Ġconven": 8318,
      "taux": 8319,
      "Ġsample": 8320,
      "mor": 8321,
      "uelles": 8322,
      "Ġarb": 8323,
      "Ġimmedi": 8324,
      "Ġaudiovis": 8325,
      "Ġdirige": 8326,
      "rages": 8327,
      "Ġacquis": 8328,
      "Ġprofesseurs": 8329,
      "cribe": 8330,
      "lined": 8331,
      "Ġcorporation": 8332,
      "phen": 8333,
      "Ġphysical": 8334,
      "ospital": 8335,
      "ĠconsidÃ©rablement": 8336,
      "Ġprevent": 8337,
      "ĠrÃ¨gle": 8338,
      "itÃ©es": 8339,
      "Ġdisting": 8340,
      "Ġestiment": 8341,
      "Ġregroup": 8342,
      "Ġbroadcasters": 8343,
      "Ġ2009": 8344,
      "ĠExpenses": 8345,
      "Ġinput": 8346,
      "Ġlocales": 8347,
      "Ġartistic": 8348,
      "ĠrÃ©alisations": 8349,
      "claration": 8350,
      "IEN": 8351,
      "entra": 8352,
      "chantillon": 8353,
      "ĠMÃ©tis": 8354,
      "Ġ56": 8355,
      "Ġsubsi": 8356,
      "international": 8357,
      "âĢ¦âĢ¦âĢ¦âĢ¦âĢ¦âĢ¦âĢ¦âĢ¦": 8358,
      "Ġannonce": 8359,
      "ĠSenator": 8360,
      "Ġpouvant": 8361,
      "ardi": 8362,
      "ĠWorking": 8363,
      "Ġannually": 8364,
      "accep": 8365,
      "Ġpourront": 8366,
      "yth": 8367,
      "Ġmanufactur": 8368,
      "Australie": 8369,
      "Ph": 8370,
      "Ġreproduction": 8371,
      "ariat": 8372,
      "Ġnotice": 8373,
      "Accueil": 8374,
      "Ġul": 8375,
      "Ġcomments": 8376,
      "ĠProfessional": 8377,
      "TV": 8378,
      "ĠBel": 8379,
      "Ġbegan": 8380,
      "ilipp": 8381,
      "Ġtakes": 8382,
      "Ġindex": 8383,
      "eler": 8384,
      "Ġconserv": 8385,
      "Ġtitles": 8386,
      "ĠTerritoires": 8387,
      "ĠpÃ©riodiques": 8388,
      "Ġaccru": 8389,
      "Ġconviennent": 8390,
      "dÃ©": 8391,
      "oivent": 8392,
      "Ġindustrie": 8393,
      "ĠCitizenship": 8394,
      "Ġcompliance": 8395,
      "Ã©rant": 8396,
      "Ġrelationships": 8397,
      "Ġrecipient": 8398,
      "ĠthÃ©Ã¢tre": 8399,
      "ĠKey": 8400,
      "Ġobservations": 8401,
      "Aut": 8402,
      "inet": 8403,
      "Ġcommunes": 8404,
      "Ġitems": 8405,
      "set": 8406,
      "erait": 8407,
      "ĠprÃ©sentÃ©s": 8408,
      "Ġeligibility": 8409,
      "Saskat": 8410,
      "avi": 8411,
      "ĠContributions": 8412,
      "Ġhelped": 8413,
      "ĠmÃ©dec": 8414,
      "GRA": 8415,
      "Ġpeuples": 8416,
      "Ġreached": 8417,
      "Ġnoter": 8418,
      "AND": 8419,
      "Ġfacteur": 8420,
      "lands": 8421,
      "During": 8422,
      "IRE": 8423,
      "ĠLimited": 8424,
      "nam": 8425,
      "reements": 8426,
      "Ã©quipement": 8427,
      "eline": 8428,
      "Ġsuggestions": 8429,
      "Lorsque": 8430,
      "econom": 8431,
      "ological": 8432,
      "ĠmÃ©n": 8433,
      "Ġsenior": 8434,
      "Ġhot": 8435,
      "Ġexplic": 8436,
      "Ġmanage": 8437,
      "Ġracism": 8438,
      "Form": 8439,
      "Ġcommunic": 8440,
      "ĠParts": 8441,
      "Ġnaturelles": 8442,
      "Ġimages": 8443,
      "Ġsubstantial": 8444,
      "dients": 8445,
      "Ġboard": 8446,
      "utiliser": 8447,
      "atteinte": 8448,
      "Ġrecr": 8449,
      "Ġutilisation": 8450,
      "Ġemerging": 8451,
      "phon": 8452,
      "ĠTur": 8453,
      "ĠRight": 8454,
      "aves": 8455,
      "ĠlÃ©gÃ¨rement": 8456,
      "Ġtext": 8457,
      "Union": 8458,
      "Ġprintemps": 8459,
      "Ġdistributed": 8460,
      "ĠcinÃ©ma": 8461,
      "Ã©missions": 8462,
      "retÃ©": 8463,
      "mobil": 8464,
      "Ġterror": 8465,
      "Ġcontribuent": 8466,
      "Ġfigures": 8467,
      "arters": 8468,
      "Ġestimates": 8469,
      "Ġcircons": 8470,
      "Ġappuie": 8471,
      "PM": 8472,
      "Ġcombin": 8473,
      "Ġutiles": 8474,
      "Ġacademic": 8475,
      "Ġdesignated": 8476,
      "ĠCBC": 8477,
      "Through": 8478,
      "Ġcollected": 8479,
      "ĠHistor": 8480,
      "ĠEvents": 8481,
      "ĠfrÃ©qu": 8482,
      "Ġcible": 8483,
      "Ġchemin": 8484,
      "Ġsuppliers": 8485,
      "Ġinterne": 8486,
      "Ġstart": 8487,
      "Ġfron": 8488,
      "Ġlargely": 8489,
      "Plusieurs": 8490,
      "Ġsuggests": 8491,
      "ĠResults": 8492,
      "Ġmentioned": 8493,
      "Research": 8494,
      "Ġsuffisamment": 8495,
      "Ã©valuer": 8496,
      "76": 8497,
      "ĠCorporate": 8498,
      "ĠOlymp": 8499,
      "Ġ52": 8500,
      "Ġ1988": 8501,
      "ĠcompÃ©tence": 8502,
      "Ġmultil": 8503,
      "identitÃ©": 8504,
      "MO": 8505,
      "Ġpourra": 8506,
      "Ã´ts": 8507,
      "Ġorganized": 8508,
      "ĠRoad": 8509,
      "Ġreasonable": 8510,
      "Ġhousehold": 8511,
      "UD": 8512,
      "cf": 8513,
      "Ġment": 8514,
      "Ġnorth": 8515,
      "ĠAC": 8516,
      "ĠajoutÃ©e": 8517,
      "HW": 8518,
      "ressions": 8519,
      "ĠDeputy": 8520,
      "Ġmagasins": 8521,
      "ĠBro": 8522,
      "Ġimplementing": 8523,
      "Ġfaite": 8524,
      "Ġterritoriaux": 8525,
      "ĠTransfer": 8526,
      "Ġherbes": 8527,
      "See": 8528,
      "Ġindicates": 8529,
      "ĠIncre": 8530,
      "ham": 8531,
      "Ġlum": 8532,
      "Ġfestival": 8533,
      "ĠpÃªche": 8534,
      "down": 8535,
      "ĠRequ": 8536,
      "Ġinstruction": 8537,
      "Ġdevra": 8538,
      "ĠPremiÃ¨res": 8539,
      "ĠLondon": 8540,
      "Ġgas": 8541,
      "Ã¨te": 8542,
      "ĠapprÃ©": 8543,
      "kets": 8544,
      "Ġsociales": 8545,
      "Ġboissons": 8546,
      "ĠdÃ©taillants": 8547,
      "Ġhistoriques": 8548,
      "PI": 8549,
      "ĠQU": 8550,
      "Ġsolid": 8551,
      "SL": 8552,
      "ĠEff": 8553,
      "Ġ%),": 8554,
      "Ġ03": 8555,
      "Ġfocused": 8556,
      "ĠBlack": 8557,
      "Ġcitizens": 8558,
      "ĠCrop": 8559,
      "ĠPan": 8560,
      "Ġrepr": 8561,
      "ĠprÃ©sentÃ©es": 8562,
      "Ġtrip": 8563,
      "Ġtaxe": 8564,
      "Ġexercice": 8565,
      "lique": 8566,
      "Str": 8567,
      "ĠtÃ©lÃ©phone": 8568,
      "ĠIII": 8569,
      "91": 8570,
      "Ġminutes": 8571,
      "ĠCF": 8572,
      "Ġlibrary": 8573,
      "Ġvisent": 8574,
      "Ġbor": 8575,
      "Employ": 8576,
      "enf": 8577,
      "Ġsale": 8578,
      "ĠLear": 8579,
      "Ġactuels": 8580,
      "ĠrÃ©duit": 8581,
      "ĠfÃ©min": 8582,
      "SM": 8583,
      "Ġdirects": 8584,
      "Ã®tr": 8585,
      "Ġoperational": 8586,
      "what": 8587,
      "ĠdÃ©bou": 8588,
      "Annexe": 8589,
      "Ġcustomers": 8590,
      "PCH": 8591,
      "Ġacknow": 8592,
      "bergement": 8593,
      "Ġsusc": 8594,
      "ĠspÃ©cialisÃ©s": 8595,
      "Ġvenir": 8596,
      "governmental": 8597,
      "ĠGestion": 8598,
      "den": 8599,
      "Ġmail": 8600,
      "Ġsauf": 8601,
      "ĠEast": 8602,
      "issaire": 8603,
      "ĠrÃ©union": 8604,
      "IO": 8605,
      "Ġdevenir": 8606,
      "Ġaspect": 8607,
      "Ġvolumes": 8608,
      "ĠSpeaker": 8609,
      "Ġperce": 8610,
      "Ġplanned": 8611,
      "Ġansw": 8612,
      "inking": 8613,
      "Ġbases": 8614,
      "Ġtexte": 8615,
      "NS": 8616,
      "rob": 8617,
      "Ġcontain": 8618,
      "ticulture": 8619,
      "ĠQueen": 8620,
      "Ġfinancer": 8621,
      "partmental": 8622,
      "Ġnewspapers": 8623,
      "folio": 8624,
      "Ġspring": 8625,
      "Pers": 8626,
      "inqu": 8627,
      "Ġassure": 8628,
      "Ġbenefic": 8629,
      "ĠadoptÃ©": 8630,
      "ĠgÃ©rer": 8631,
      "force": 8632,
      "ĠsupÃ©rieurs": 8633,
      "ĠGaz": 8634,
      "Ġpertinence": 8635,
      "Ġexclusive": 8636,
      "hu": 8637,
      "mill": 8638,
      "ĠConsultations": 8639,
      "Ġavailability": 8640,
      "Ġparc": 8641,
      "Ġlicens": 8642,
      "Ġsuggest": 8643,
      "Ġchoice": 8644,
      "existence": 8645,
      "Gen": 8646,
      "Ġtrain": 8647,
      "Ġworkers": 8648,
      "Ġconta": 8649,
      "Ġhyp": 8650,
      "Ġinvestis": 8651,
      "operative": 8652,
      "Ġjudici": 8653,
      "ĠclÃ©": 8654,
      "Ġspectacles": 8655,
      "ĠAutre": 8656,
      "Each": 8657,
      "Ġpresentation": 8658,
      "Ġfermes": 8659,
      "ĠrÃ©alisÃ©": 8660,
      "Ġdistric": 8661,
      "Ġchanging": 8662,
      "Ġveiller": 8663,
      "Ġmechanism": 8664,
      "ĠAD": 8665,
      "ĠBas": 8666,
      "ĠquÃ©b": 8667,
      "Ġmodes": 8668,
      "Ġentitled": 8669,
      "odities": 8670,
      "ĠquÃ©bÃ©c": 8671,
      "___": 8672,
      "Ġdistributors": 8673,
      "Ġmaternelle": 8674,
      "abinet": 8675,
      "Ġviews": 8676,
      "ĠOL": 8677,
      "Ġsharing": 8678,
      "Ġrestre": 8679,
      "pecific": 8680,
      "intervention": 8681,
      "bean": 8682,
      "ĠcinÃ©matographique": 8683,
      "Mul": 8684,
      "lying": 8685,
      "Ġmontants": 8686,
      "Ġmoyennes": 8687,
      "ĠParticipation": 8688,
      "ruptcy": 8689,
      "Ġfich": 8690,
      "Ġbou": 8691,
      "Ġzone": 8692,
      "inï¬Ĥation": 8693,
      "ĠStephen": 8694,
      "Ġaimed": 8695,
      "Pri": 8696,
      "ĠdÃ©pass": 8697,
      "Ġhomolog": 8698,
      "Ġ$.": 8699,
      "Ġstorage": 8700,
      "ĠÃ©conomie": 8701,
      "Ġexporters": 8702,
      "ĠlÃ©gumes": 8703,
      "Ġcontracts": 8704,
      "Ġpoursuivre": 8705,
      "Ġstores": 8706,
      "TING": 8707,
      "ĠmatÃ©ri": 8708,
      "ĠSyst": 8709,
      "Ġattentes": 8710,
      "lies": 8711,
      "ublic": 8712,
      "Ġsecondaire": 8713,
      "Ġallowed": 8714,
      "odity": 8715,
      "Ġautant": 8716,
      "Ġconfl": 8717,
      "Ġexperienced": 8718,
      "Ġlisted": 8719,
      "ĠGlobal": 8720,
      "ĠRoutes": 8721,
      "Ġ600": 8722,
      "Ġcounter": 8723,
      "ĠMedical": 8724,
      "Ġinternationally": 8725,
      "Ġperte": 8726,
      "minal": 8727,
      "Ġenough": 8728,
      "ĠWeek": 8729,
      "ĠSecretary": 8730,
      "92": 8731,
      "Ġrenouvellement": 8732,
      "ulent": 8733,
      "Ġsoftware": 8734,
      "Ġvictimes": 8735,
      "ban": 8736,
      "Ġnov": 8737,
      "can": 8738,
      "Ġtourn": 8739,
      "Ġauront": 8740,
      "ĠcompÃ©titivitÃ©": 8741,
      "Labrador": 8742,
      "iction": 8743,
      "ĠConfÃ©rence": 8744,
      "Ġaffili": 8745,
      "ĠSuper": 8746,
      "Ġexemples": 8747,
      "water": 8748,
      "Ġcame": 8749,
      "ĠAssessment": 8750,
      "Ġintroduced": 8751,
      "Section": 8752,
      "ĠcrÃ©ateurs": 8753,
      "PT": 8754,
      "ĠInves": 8755,
      "ĠPrairie": 8756,
      "Toronto": 8757,
      "usage": 8758,
      "amÃ©ric": 8759,
      "Pres": 8760,
      "Ġpossibles": 8761,
      "ĠAccueil": 8762,
      "56": 8763,
      "VW": 8764,
      "Ġclosely": 8765,
      "BL": 8766,
      "Mais": 8767,
      "Ġship": 8768,
      "Ġveut": 8769,
      "Ġjouer": 8770,
      "ologiques": 8771,
      "clus": 8772,
      "ĠrÃ©gionales": 8773,
      "Ġperformances": 8774,
      "ĠProductions": 8775,
      "Ġparticipating": 8776,
      "ara": 8777,
      "Ġcontained": 8778,
      "ĠRelated": 8779,
      "speaking": 8780,
      "Ġsols": 8781,
      "Ġ1970": 8782,
      "Mon": 8783,
      "ĠbÃ©tail": 8784,
      "Ġprosp": 8785,
      "Ġweak": 8786,
      "Ġtransaction": 8787,
      "Part": 8788,
      "Ġrequests": 8789,
      "no": 8790,
      "Ġproductivity": 8791,
      "Ġexternal": 8792,
      "Ġconsent": 8793,
      "ĠHalifax": 8794,
      "Ġrespectively": 8795,
      "ĠreconnaÃ®t": 8796,
      "Ġsuperv": 8797,
      "Ġgeograph": 8798,
      "ÃīN": 8799,
      "Ġopinions": 8800,
      "itr": 8801,
      "Ġmot": 8802,
      "trum": 8803,
      "ĠDu": 8804,
      "Ġfinance": 8805,
      "Ġprofessionnelle": 8806,
      "including": 8807,
      "Ġuser": 8808,
      "OMC": 8809,
      "Ġbilingues": 8810,
      "Ġideas": 8811,
      "53": 8812,
      "ĠÃ©conomies": 8813,
      "Ġroyal": 8814,
      "Ġgall": 8815,
      "ocal": 8816,
      "Ġemploi": 8817,
      "Ġefficiency": 8818,
      "ĠOFFIC": 8819,
      "ĠSmall": 8820,
      "ĠTit": 8821,
      "ĠIV": 8822,
      "iciels": 8823,
      "Ġadequate": 8824,
      "rÃ©taire": 8825,
      "enda": 8826,
      "ensement": 8827,
      "DQG": 8828,
      "Cl": 8829,
      "ĠspÃ©cialistes": 8830,
      "RF": 8831,
      "reen": 8832,
      "ĠSa": 8833,
      "Ġwag": 8834,
      "ĠGrow": 8835,
      "Ġtrack": 8836,
      "pert": 8837,
      "ĠcrÃ©dits": 8838,
      "ĠKingdom": 8839,
      "making": 8840,
      "Ġstages": 8841,
      "OPIC": 8842,
      "pir": 8843,
      "ĠCharter": 8844,
      "ĠÃ©tapes": 8845,
      "nom": 8846,
      "Ġ58": 8847,
      "ĠAgreements": 8848,
      "Ġreceiving": 8849,
      "Ġrencontre": 8850,
      "Ġdil": 8851,
      "auc": 8852,
      "Ġcompensation": 8853,
      "ĠRich": 8854,
      "Ġplantes": 8855,
      "Ġauxquels": 8856,
      "Ġclause": 8857,
      "SI": 8858,
      "Ġfaculty": 8859,
      "Ġcomposition": 8860,
      "ĠAudit": 8861,
      "ĠdÃ©mograph": 8862,
      "ĠCONS": 8863,
      "ĠPayments": 8864,
      "ĠdÃ©part": 8865,
      "Ġspir": 8866,
      "Ġworkshops": 8867,
      "ĠCat": 8868,
      "ĠgÃ©nÃ©rales": 8869,
      "Ġparfois": 8870,
      "ECH": 8871,
      "Ġvent": 8872,
      "ĠSound": 8873,
      "Ġslow": 8874,
      "econdary": 8875,
      "Ġhelps": 8876,
      "Ġ1986": 8877,
      "ĠReports": 8878,
      "anger": 8879,
      "Ġimage": 8880,
      "riends": 8881,
      "ĠPI": 8882,
      "ailleurs": 8883,
      "ĠPartnership": 8884,
      "Ġrational": 8885,
      "Ġexploitation": 8886,
      "Ġparlement": 8887,
      "ĠAsian": 8888,
      "Ġï": 8889,
      "ĠprÃ©cise": 8890,
      "Ġsupplies": 8891,
      "Ġavoid": 8892,
      "ĠrÃ©alisÃ©s": 8893,
      "Ġnuis": 8894,
      "Ġconsci": 8895,
      "oday": 8896,
      "Ġlimites": 8897,
      "Ġjeunesse": 8898,
      "aceu": 8899,
      "ĠsupplÃ©mentaire": 8900,
      "raine": 8901,
      "Nombre": 8902,
      "ĠUse": 8903,
      "Ġfields": 8904,
      "ĠespÃ¨ces": 8905,
      "ommandation": 8906,
      "Do": 8907,
      "kers": 8908,
      "Ġpath": 8909,
      "Ġjobs": 8910,
      "Ġindirect": 8911,
      "Ġraisonnable": 8912,
      "gne": 8913,
      "Ġ00": 8914,
      "ĠannoncÃ©": 8915,
      "aged": 8916,
      "Ġmov": 8917,
      "Ġpassant": 8918,
      "Ġoutil": 8919,
      "Ġnegotiations": 8920,
      "Ġadultes": 8921,
      "ĠIntroduction": 8922,
      "elligence": 8923,
      "Ġfaits": 8924,
      "ĠÃ©quitable": 8925,
      "Ġlaunched": 8926,
      "Ġcities": 8927,
      "itÃĥ": 8928,
      "Ġspent": 8929,
      "Ġ04": 8930,
      "armaceu": 8931,
      "NEX": 8932,
      "Ġconflic": 8933,
      "ĠBox": 8934,
      "Atlantique": 8935,
      "Ġlett": 8936,
      "ĠenquÃªte": 8937,
      "Ġrendu": 8938,
      "Ġrenforcement": 8939,
      "Ġcomplain": 8940,
      "uge": 8941,
      "ĠSEC": 8942,
      "ĠVe": 8943,
      "Ġmultiples": 8944,
      "ĠcommencÃ©": 8945,
      "hood": 8946,
      "oman": 8947,
      "ĠvÃ©hic": 8948,
      "ĠTableau": 8949,
      "ĠvÃ©gÃ©t": 8950,
      "ĠOrganizations": 8951,
      "bic": 8952,
      "azz": 8953,
      "ĠHead": 8954,
      "ĠAnnoun": 8955,
      "Veuillez": 8956,
      "Ġinformations": 8957,
      "Ã©th": 8958,
      "ĠtÃ¢": 8959,
      "ĠpÃ©tro": 8960,
      "Ġelimin": 8961,
      "ĠFCT": 8962,
      "Ġdisques": 8963,
      "Ġgaleries": 8964,
      "Ġeditorial": 8965,
      "ĠentraÃ®neurs": 8966,
      "Ġthink": 8967,
      "ĠBio": 8968,
      "Ġsoja": 8969,
      "argent": 8970,
      "Ġfonctionnaires": 8971,
      "Article": 8972,
      "ĠtÃ©mo": 8973,
      "iform": 8974,
      "ĠOur": 8975,
      "ĠProjet": 8976,
      "Ġmeilleurs": 8977,
      "GrÃ¢ce": 8978,
      "arily": 8979,
      "Ġeaux": 8980,
      "Ġrecommandation": 8981,
      "atrices": 8982,
      "Ġsignifie": 8983,
      "Ġwar": 8984,
      "Ġactifs": 8985,
      "ĠStratÃ©g": 8986,
      "Ġdry": 8987,
      "otte": 8988,
      "Ġdistinc": 8989,
      "Ġexcellent": 8990,
      "oque": 8991,
      "ĠconÃ§": 8992,
      "ĠMat": 8993,
      "Produc": 8994,
      "Ġoffering": 8995,
      "Voir": 8996,
      "Ġrespectivement": 8997,
      "ĠdÃ¨s": 8998,
      "ĠDOC": 8999,
      "ĠIsra": 9000,
      "ĠAperÃ§u": 9001,
      "free": 9002,
      "oure": 9003,
      "elier": 9004,
      "Ġactuelles": 9005,
      "Ġimmigration": 9006,
      "GC": 9007,
      "VD": 9008,
      "ĠPAP": 9009,
      "irs": 9010,
      "Ġlettre": 9011,
      "mil": 9012,
      "agog": 9013,
      "Ġtravers": 9014,
      "Ġemployee": 9015,
      "93": 9016,
      "ĠÃ©t": 9017,
      "Ġsuis": 9018,
      "Ġaggreg": 9019,
      "ĠCTF": 9020,
      "ds": 9021,
      "ĠdÃ©coulant": 9022,
      "Ġvary": 9023,
      "ĠOpportunities": 9024,
      "Ġmultiple": 9025,
      "ĠaxÃ©": 9026,
      "ĠCSA": 9027,
      "Ġremplir": 9028,
      "Organisation": 9029,
      "Ġconfidence": 9030,
      "Ġbackground": 9031,
      "Ġvoluntary": 9032,
      "ĠConse": 9033,
      "ĠProtocol": 9034,
      "tÃ©m": 9035,
      "forcement": 9036,
      "Where": 9037,
      "othÃ¨": 9038,
      "ĠspÃ©cifi": 9039,
[...]
